{
  "version": "1.0",
  "truncation": null,
  "padding": null,
  "added_tokens": [
    {
      "id": 0,
      "content": "<PAD>",
      "single_word": false,
      "lstrip": false,
      "rstrip": false,
      "normalized": false,
      "special": true
    },
    {
      "id": 1,
      "content": "<UNK>",
      "single_word": false,
      "lstrip": false,
      "rstrip": false,
      "normalized": false,
      "special": true
    },
    {
      "id": 2,
      "content": "<BOS>",
      "single_word": false,
      "lstrip": false,
      "rstrip": false,
      "normalized": false,
      "special": true
    },
    {
      "id": 3,
      "content": "<EOS>",
      "single_word": false,
      "lstrip": false,
      "rstrip": false,
      "normalized": false,
      "special": true
    },
    {
      "id": 4,
      "content": "<USER>",
      "single_word": false,
      "lstrip": false,
      "rstrip": false,
      "normalized": false,
      "special": true
    },
    {
      "id": 5,
      "content": "<ASSISTANT>",
      "single_word": false,
      "lstrip": false,
      "rstrip": false,
      "normalized": false,
      "special": true
    }
  ],
  "normalizer": null,
  "pre_tokenizer": {
    "type": "ByteLevel",
    "add_prefix_space": false,
    "trim_offsets": true,
    "use_regex": true
  },
  "post_processor": {
    "type": "TemplateProcessing",
    "single": [
      {
        "SpecialToken": {
          "id": "<BOS>",
          "type_id": 0
        }
      },
      {
        "Sequence": {
          "id": "A",
          "type_id": 0
        }
      },
      {
        "SpecialToken": {
          "id": "<EOS>",
          "type_id": 0
        }
      }
    ],
    "pair": [
      {
        "Sequence": {
          "id": "A",
          "type_id": 0
        }
      },
      {
        "Sequence": {
          "id": "B",
          "type_id": 1
        }
      }
    ],
    "special_tokens": {
      "<BOS>": {
        "id": "<BOS>",
        "ids": [
          2
        ],
        "tokens": [
          "<BOS>"
        ]
      },
      "<EOS>": {
        "id": "<EOS>",
        "ids": [
          3
        ],
        "tokens": [
          "<EOS>"
        ]
      }
    }
  },
  "decoder": {
    "type": "ByteLevel",
    "add_prefix_space": true,
    "trim_offsets": true,
    "use_regex": true
  },
  "model": {
    "type": "BPE",
    "dropout": null,
    "unk_token": "<UNK>",
    "continuing_subword_prefix": null,
    "end_of_word_suffix": null,
    "fuse_unk": false,
    "byte_fallback": false,
    "ignore_merges": false,
    "vocab": {
      "<PAD>": 0,
      "<UNK>": 1,
      "<BOS>": 2,
      "<EOS>": 3,
      "<USER>": 4,
      "<ASSISTANT>": 5,
      "!": 6,
      "%": 7,
      "'": 8,
      "(": 9,
      ")": 10,
      "*": 11,
      "+": 12,
      ",": 13,
      "-": 14,
      ".": 15,
      "/": 16,
      "0": 17,
      "1": 18,
      "2": 19,
      "3": 20,
      "4": 21,
      "5": 22,
      "6": 23,
      "7": 24,
      "8": 25,
      "9": 26,
      ":": 27,
      ";": 28,
      "<": 29,
      "=": 30,
      ">": 31,
      "?": 32,
      "A": 33,
      "B": 34,
      "C": 35,
      "D": 36,
      "E": 37,
      "F": 38,
      "G": 39,
      "H": 40,
      "I": 41,
      "L": 42,
      "M": 43,
      "N": 44,
      "O": 45,
      "P": 46,
      "R": 47,
      "S": 48,
      "T": 49,
      "U": 50,
      "W": 51,
      "Y": 52,
      "[": 53,
      "]": 54,
      "a": 55,
      "b": 56,
      "c": 57,
      "d": 58,
      "e": 59,
      "f": 60,
      "g": 61,
      "h": 62,
      "i": 63,
      "j": 64,
      "k": 65,
      "l": 66,
      "m": 67,
      "n": 68,
      "o": 69,
      "p": 70,
      "q": 71,
      "r": 72,
      "s": 73,
      "t": 74,
      "u": 75,
      "v": 76,
      "w": 77,
      "x": 78,
      "y": 79,
      "¡": 80,
      "¢": 81,
      "£": 82,
      "¤": 83,
      "¥": 84,
      "¦": 85,
      "§": 86,
      "¯": 87,
      "°": 88,
      "±": 89,
      "²": 90,
      "³": 91,
      "´": 92,
      "µ": 93,
      "¶": 94,
      "·": 95,
      "¸": 96,
      "¹": 97,
      "º": 98,
      "»": 99,
      "¼": 100,
      "½": 101,
      "¾": 102,
      "¿": 103,
      "Â": 104,
      "Ã": 105,
      "Ð": 106,
      "Ñ": 107,
      "â": 108,
      "Ċ": 109,
      "č": 110,
      "Ġ": 111,
      "Ģ": 112,
      "ģ": 113,
      "Ĥ": 114,
      "ĥ": 115,
      "Ħ": 116,
      "ħ": 117,
      "Ĩ": 118,
      "ĩ": 119,
      "Ī": 120,
      "ī": 121,
      "Ĭ": 122,
      "ĭ": 123,
      "Į": 124,
      "į": 125,
      "İ": 126,
      "ı": 127,
      "Ĳ": 128,
      "ĳ": 129,
      "Ĵ": 130,
      "ĵ": 131,
      "Ķ": 132,
      "ķ": 133,
      "Ĺ": 134,
      "ĺ": 135,
      "ļ": 136,
      "Ľ": 137,
      "ľ": 138,
      "Ŀ": 139,
      "ŀ": 140,
      "Ł": 141,
      "ł": 142,
      "Ń": 143,
      "ĠÐ": 144,
      "Ð¾": 145,
      "Ð°": 146,
      "Ðµ": 147,
      "ÑĤ": 148,
      "Ñģ": 149,
      "Ð¸": 150,
      "Ð¾Ð": 151,
      "ÑĢ": 152,
      "Ð½": 153,
      "čĊ": 154,
      "Ð°Ð": 155,
      "Ñĥ": 156,
      "ÐµÐ": 157,
      "Ñĭ": 158,
      "ĠÐ¿": 159,
      "Ñı": 160,
      "Ð»": 161,
      "ÑģÑĤ": 162,
      "Ðº": 163,
      "Ñĩ": 164,
      "Ġt": 165,
      "ÑĮ": 166,
      "Ġa": 167,
      "in": 168,
      "Ð¹": 169,
      "ĠÑģ": 170,
      "ĠÐ²": 171,
      "ĠÐ¸": 172,
      "Ð¼": 173,
      "ÐµÑĤ": 174,
      "ÑĤÐ¾": 175,
      "Ð½Ð¸": 176,
      "Ð²": 177,
      "le": 178,
      "ĠÐ¿ÑĢ": 179,
      "Ġs": 180,
      "Ð±": 181,
      "ĠÐº": 182,
      "ĠÑĤ": 183,
      "Ð¾Ð²": 184,
      "Ð°Ð»": 185,
      "at": 186,
      "he": 187,
      "ĠÐ¾": 188,
      "AN": 189,
      "AS": 190,
      "ER": 191,
      "IS": 192,
      "SER": 193,
      "SIS": 194,
      "TAN": 195,
      "USER": 196,
      "ASSIS": 197,
      "TANT": 198,
      "ASSISTANT": 199,
      "Ð°Ðº": 200,
      "ÑĢÐ°": 201,
      "ĠÑĩ": 202,
      "re": 203,
      "on": 204,
      "EO": 205,
      "ou": 206,
      "ĠÐ½": 207,
      "EOS": 208,
      "Ð¾Ð´": 209,
      "Ġp": 210,
      "is": 211,
      "an": 212,
      "Ð¾Ð¶": 213,
      "ÑģÑĤÐ°": 214,
      "Ġâ": 215,
      "ÑĥÐ¹": 216,
      "ÐµÐ½": 217,
      "Ð¾Ð»": 218,
      "ĢĶ": 219,
      "ĠâĢĶ": 220,
      "Ñħ": 221,
      "Ġw": 222,
      "Ġm": 223,
      "Ð´": 224,
      "Ð¸ÑĤ": 225,
      "Ð¾Ð³": 226,
      "ll": 227,
      "Ð¾Ðµ": 228,
      "se": 229,
      "Ġc": 230,
      "ĠÐŁ": 231,
      "or": 232,
      "en": 233,
      "Ð¿": 234,
      "Ð°Ð»ÑĥÐ¹": 235,
      "Ð¾Ð¶Ð°Ð»ÑĥÐ¹": 236,
      "Ð¾Ð¶Ð°Ð»ÑĥÐ¹ÑģÑĤÐ°": 237,
      "Ġthe": 238,
      "ÐµÐ»": 239,
      "ing": 240,
      "er": 241,
      "Ñİ": 242,
      "ÐµÑĢ": 243,
      "Ġb": 244,
      "Ġan": 245,
      "it": 246,
      "Ð°Ð¶": 247,
      "Ġis": 248,
      "Ð¾Ð¼": 249,
      "ĠÑ": 250,
      "ĠÐ´": 251,
      "lea": 252,
      "Ð°Ñģ": 253,
      "Ð½Ñĭ": 254,
      "Ð°Ð¼": 255,
      "es": 256,
      "ĠÐ¼": 257,
      "Ð·": 258,
      "ĠÐ·": 259,
      "Ð°ÑĤ": 260,
      "Ġf": 261,
      "Ġd": 262,
      "Ġand": 263,
      "hat": 264,
      "ÑģÐº": 265,
      "ĠÑĩÑĤÐ¾": 266,
      "Ġ1": 267,
      "Ġ2": 268,
      "ow": 269,
      "Ð¾Ñģ": 270,
      "ĠÑĤÐ°Ðº": 271,
      "ĠÑĥ": 272,
      "Ð°Ð¶Ð¸": 273,
      "ÐµÐ¼": 274,
      "ĠÑĤÐ°ÐºÐ¾Ðµ": 275,
      "Ð³": 276,
      "Ġh": 277,
      "ÐµÐº": 278,
      "ĠÐ½Ð°": 279,
      "ÑĨ": 280,
      "ar": 281,
      "Ð½Ðµ": 282,
      "ÑĪ": 283,
      "ĠÐ¿ÑĢÐ¾": 284,
      "ĠÐ±": 285,
      "Ð±Ñ": 286,
      "Ð¸Ð½": 287,
      "lease": 288,
      "ic": 289,
      "ac": 290,
      "you": 291,
      "Ġyou": 292,
      "ell": 293,
      "ĠÐŁÐ¾Ð¶Ð°Ð»ÑĥÐ¹ÑģÑĤÐ°": 294,
      "Ġto": 295,
      "th": 296,
      "ion": 297,
      "ld": 298,
      "Ġin": 299,
      "ĠÐĹ": 300,
      "Ð±ÑĬ": 301,
      "Ġo": 302,
      "Ġ=": 303,
      "Ð¾Ð»ÑĮ": 304,
      "Ġe": 305,
      "Ġ3": 306,
      "Ð½Ð¸Ðµ": 307,
      "al": 308,
      "Ġl": 309,
      "Ð¸Ñģ": 310,
      "ts": 311,
      "ĠÑģÐ¿": 312,
      "Ð½ÐµÐµ": 313,
      "Ð¾ÑĢ": 314,
      "ÐŁ": 315,
      "ÑıÑģ": 316,
      "Ð±ÑĬÑıÑģ": 317,
      "Ð¾Ðº": 318,
      "Ð°ÑĢÐ°": 319,
      "ÐµÐ´": 320,
      "Ñī": 321,
      "ro": 322,
      "Ð¸Ðº": 323,
      "Ð¸Ð±": 324,
      "Ð°Ð·": 325,
      "Ð¸Ð²": 326,
      "Ð±ÑĬÑıÑģÐ½Ð¸": 327,
      "ĠP": 328,
      "ÑĤÐµ": 329,
      "ÑģÑı": 330,
      "Ġme": 331,
      "Ð°ÑģÐ¸Ð±": 332,
      "ĠÐĹÐ°ÑĢÐ°": 333,
      "ĠÑģÐ¿Ð°ÑģÐ¸Ð±": 334,
      "ĠÐĹÐ°ÑĢÐ°Ð½ÐµÐµ": 335,
      "ĠÑģÐ¿Ð°ÑģÐ¸Ð±Ð¾": 336,
      "Ð°ÐµÑĤ": 337,
      "Ð°Ð½": 338,
      "ĠT": 339,
      "ÐµÐ·": 340,
      "ÑĥÑĩ": 341,
      "Ð»Ð¸": 342,
      "ĠÑĢ": 343,
      "¡Ðº": 344,
      "ks": 345,
      "Ñĳ": 346,
      "ĠÐ°": 347,
      "Ġg": 348,
      "Ð¾Ð³ÑĢ": 349,
      "Ð¸Ð»": 350,
      "Ð½ÑĭÐ¹": 351,
      "Ð°Ñİ": 352,
      "ÑĨÐ¸": 353,
      "ÑģÐºÐ°Ð¶Ð¸": 354,
      "Ð°Ð²": 355,
      "yth": 356,
      "ĠI": 357,
      "ould": 358,
      "ra": 359,
      "ig": 360,
      "han": 361,
      "Ð°Ð¼Ð¼": 362,
      "ÑĢÑĭ": 363,
      "Ð¶": 364,
      "ÐµÑģ": 365,
      "Ð¸ÑĢ": 366,
      "ŀÐ±ÑĬÑıÑģÐ½Ð¸": 367,
      "ĠÐ³": 368,
      "Ġst": 369,
      "Ġof": 370,
      "Ð½Ð¾": 371,
      "Ð°ÑĤÑĮ": 372,
      "ĠÐ§": 373,
      "Ð°Ð¹": 374,
      "Ð¸ÑĤÑĮ": 375,
      "Ð¾Ð³ÑĢÐ°Ð¼Ð¼": 376,
      "Ð¾ÑĤ": 377,
      "ÑģÑĤÐ²": 378,
      "st": 379,
      "ĠÑį": 380,
      "Ð°Ð¼Ð¸": 381,
      "What": 382,
      "ĠÐµ": 383,
      "ge": 384,
      "Ġn": 385,
      "ĠÐ¾ÑĤ": 386,
      "Ð°Ñı": 387,
      "ĠÑĢÐ°": 388,
      "ÐµÐ±": 389,
      "ĠÐ¿Ð¾": 390,
      "Ġtell": 391,
      "Ġv": 392,
      "Ġ5": 393,
      "ĠÑı": 394,
      "Ġre": 395,
      "Ð¾Ð´ÑģÐºÐ°Ð¶Ð¸": 396,
      "ĠThan": 397,
      "ĠThanks": 398,
      "ÐµÐ¹": 399,
      "tion": 400,
      "ua": 401,
      "Could": 402,
      "Ġwhat": 403,
      "Ð¸Ðµ": 404,
      "Ð¾Ð½": 405,
      "ĠÐ²Ñĭ": 406,
      "Ġplease": 407,
      "Ġco": 408,
      "ÐµÐºÑĤ": 409,
      "¡ÐºÐ°Ð¶Ð¸": 410,
      "ĠPyth": 411,
      "ĠÑĦ": 412,
      "ĠÐ¿Ð¾Ð¶Ð°Ð»ÑĥÐ¹ÑģÑĤÐ°": 413,
      "all": 414,
      "ce": 415,
      "Ġcan": 416,
      "ĠÑģÐ»": 417,
      "ĠÐ¸Ð½": 418,
      "Ð½Ð¸Ñı": 419,
      "ÑĥÑİ": 420,
      "Ð¾Ð±": 421,
      "ĠÑĢÐ°Ñģ": 422,
      "Ð¸ÑģÐ»": 423,
      "ĠÐ¸Ð·": 424,
      "ĠE": 425,
      "Ð¸Ð¼": 426,
      "ĠÐ¿ÑĢÐ¾ÑģÑĤ": 427,
      "de": 428,
      "ÑħÐ¾Ð´": 429,
      "im": 430,
      "rn": 431,
      "Ġ4": 432,
      "Ð°ÑİÑĤ": 433,
      "Ð¾ÑĤÐ¾": 434,
      "ĠÐ·Ð°Ð": 435,
      "00": 436,
      "ÐµÐ½ÑĮ": 437,
      "Ġwit": 438,
      "Ġwith": 439,
      "ab": 440,
      "ÑıÐµÑĤ": 441,
      "Ð¾Ð»ÑĮÐº": 442,
      "Ġlea": 443,
      "ĠÐ¸Ð½ÑĤ": 444,
      "ĠPython": 445,
      "Ġmo": 446,
      "Ġfor": 447,
      "ÑĦ": 448,
      "ve": 449,
      "Ġk": 450,
      "Ð¾Ð»ÑĮÑĪ": 451,
      "How": 452,
      "Ð¾Ð¹": 453,
      "ĠÑįÑĤÐ¾": 454,
      "Ð¸Ð¹": 455,
      "ÑĥÐ½": 456,
      "ÐºÑĨÐ¸": 457,
      "ÐµÐ»ÑĮ": 458,
      "Ð¸Ð²ÐµÑĤ": 459,
      "xp": 460,
      "Ġat": 461,
      "ach": 462,
      "Ð¾Ð»ÑĮÐºÐ¾": 463,
      "ĠÑĤÐ¾Ðº": 464,
      "ĠÑĤÐ¾ÐºÐµÐ½": 465,
      "Ð¾Ð³Ñĥ": 466,
      "Ġbo": 467,
      "ĠÑģÐ²": 468,
      "Ġlearn": 469,
      "Ġit": 470,
      "Ð°Ñĩ": 471,
      "ÑĥÐ½ÐºÑĨÐ¸": 472,
      "ter": 473,
      "Ġpro": 474,
      "Ð¾Ð·": 475,
      "Ġsc": 476,
      "Ð¾Ð²Ð°": 477,
      "ĠWhat": 478,
      "ec": 479,
      "ĠA": 480,
      "Ġint": 481,
      "ĠÐºÐ°Ðº": 482,
      "Ð¾Ð³Ð¾": 483,
      "ÑĭÐ²": 484,
      "Ð½ÑĭÐµ": 485,
      "ÑĥÑģ": 486,
      "ÑĭÐº": 487,
      "Ð·ÑĭÐº": 488,
      "ÐµÑĩ": 489,
      "Ġte": 490,
      "Ġcon": 491,
      "igh": 492,
      "ÐµÐ½ÑĤ": 493,
      "Ġhow": 494,
      "Ð¸ÐºÐ»": 495,
      "ep": 496,
      "ÐµÐ½Ð¸Ñı": 497,
      "ÑĤÑĮ": 498,
      "ĠÑĩÐ¸ÑģÐ»": 499,
      "ence": 500,
      "ÑĢÑĥ": 501,
      "Ð»ÐµÐºÑĤ": 502,
      "ĠÐ¿ÑĢÐµÐ´": 503,
      "ain": 504,
      "ĠÐºÐ¸Ð»": 505,
      "ĠÐ¾Ð±": 506,
      "ist": 507,
      "Ġon": 508,
      "ang": 509,
      "ĠÐ·Ð°": 510,
      "Ð¸Ð½ÑĤ": 511,
      "ĠÐ¶": 512,
      "ÐµÐ³": 513,
      "Ġde": 514,
      "able": 515,
      "ed": 516,
      "ÑĤÐ¾ÑĢ": 517,
      "ĠÐ¼Ð¾Ð´": 518,
      "ÑĢÐ¾Ñģ": 519,
      "ÐµÐ²": 520,
      "ĠÐ´ÐµÐ»": 521,
      "ĠÐŁÑĢ": 522,
      "ple": 523,
      "Ð°ÑģÑĤ": 524,
      "ds": 525,
      "ÐŀÐ±ÑĬÑıÑģÐ½Ð¸": 526,
      "ĠÐŀÐ±ÑĬÑıÑģÐ½Ð¸": 527,
      "ĠÐºÐ¾ÑĤÐ¾": 528,
      "ÑĢÑĭÐ¹": 529,
      "Ð°Ð¹ÑĤÐµ": 530,
      "ĠÐºÐ¸Ð»Ð¾Ð³ÑĢÐ°Ð¼Ð¼": 531,
      "ÑĢÐ°Ð²": 532,
      "ÑĥÐ´": 533,
      "Ġexp": 534,
      "Ġne": 535,
      "60": 536,
      "ss": 537,
      "ÑĥÐ»": 538,
      "ĠÐ§ÑĤÐ¾": 539,
      "mm": 540,
      "ÃĹ": 541,
      "ÐµÐ½Ð¸Ðµ": 542,
      "Ð½ÑĭÑħ": 543,
      "uage": 544,
      "ÑĥÑİÑī": 545,
      "anguage": 546,
      "Ġ7": 547,
      "lu": 548,
      "ĠÐ¿ÑĢÐ¸": 549,
      "ĠÐĺ": 550,
      "xt": 551,
      "Ð´Ñĭ": 552,
      "ÐµÐ»Ð»ÐµÐºÑĤ": 553,
      "ĠÐ±Ñĭ": 554,
      "ĠÐ¸Ð½ÑĤÐµÐ»Ð»ÐµÐºÑĤ": 555,
      "ial": 556,
      "lain": 557,
      "un": 558,
      "ĠHow": 559,
      "Ð¼Ð¾Ñģ": 560,
      "Ð¸ÑĢÐ¾Ð²Ð°": 561,
      "ore": 562,
      "Ġor": 563,
      "ĠÐºÐ¾Ð´": 564,
      "ĠÐ±Ð¾Ð»ÑĮÑĪ": 565,
      "ĠÐĴ": 566,
      "ÑĤÐ¾Ð¼": 567,
      "Ð½Ð¾Ðµ": 568,
      "Ġdo": 569,
      "ÑģÑĤÐ²ÐµÐ½": 570,
      "ĠÐ¾Ð±ÑĥÑĩ": 571,
      "ĠÐŁÐ¾Ð´ÑģÐºÐ°Ð¶Ð¸": 572,
      "ÐŁÐ¾Ð´ÑģÐºÐ°Ð¶Ð¸": 573,
      "ÑģÑĤÐ¾": 574,
      "ĠÑģÐ¾": 575,
      "Ġ15": 576,
      "ĠÐ¿ÑĢÐ¾Ð³ÑĢÐ°Ð¼Ð¼": 577,
      "ent": 578,
      "ĠÑĨ": 579,
      "ĠÑıÐ·ÑĭÐº": 580,
      "Ġhe": 581,
      "ĠCould": 582,
      "Ġsh": 583,
      "Please": 584,
      "ur": 585,
      "ĠÐ¿Ð¾Ð»": 586,
      "ĠÑĤÐµÐº": 587,
      "ÑĢÐ°Ð½": 588,
      "ĠÐ½Ð¾Ð²": 589,
      "Ġwor": 590,
      "ÐŁÐ¾Ð¶Ð°Ð»ÑĥÐ¹ÑģÑĤÐ°": 591,
      "ĠPlease": 592,
      "ĠÑĦÑĥÐ½ÐºÑĨÐ¸": 593,
      "ÑĢÑĥÐ³": 594,
      "ĠÐŀ": 595,
      "qu": 596,
      "rac": 597,
      "Ð¡ÐºÐ°Ð¶Ð¸": 598,
      "ĠÐ¡ÐºÐ°Ð¶Ð¸": 599,
      "Ð¸ÑĤÐµ": 600,
      "ĠÃĹ": 601,
      "um": 602,
      "ļÐ°Ðº": 603,
      "ĠÐ¼Ð¾Ð´ÐµÐ»ÑĮ": 604,
      "ÑģÐ»": 605,
      "Ð¸Ñı": 606,
      "out": 607,
      "Ġlanguage": 608,
      "ĠÐĲ": 609,
      "ver": 610,
      "qua": 611,
      "ÑĥÑĤ": 612,
      "Ġsqua": 613,
      "ellig": 614,
      "alls": 615,
      "Ġintellig": 616,
      "Ġsquare": 617,
      "Ġ12": 618,
      "ĠÐ¸Ð»Ð¸": 619,
      "Ġbox": 620,
      "ĠÑĩÐ¸ÑģÐ»Ð¾": 621,
      "Ġ30": 622,
      "ding": 623,
      "Ð¾Ð¼Ð¾Ð³": 624,
      "ĠÐ´Ð°Ð½": 625,
      "Ð¸ÑĢÐ¾Ð²Ð°Ð½Ð¸Ðµ": 626,
      "Ð¾Ð¿": 627,
      "ĠÐ¿Ð¾Ð²": 628,
      "ater": 629,
      "atter": 630,
      "Ġ200": 631,
      "ĠÐ¿Ð¾Ð²ÑĤÐ¾ÑĢ": 632,
      "ut": 633,
      "Ġ8": 634,
      "ĠÐ¿Ð»": 635,
      "Ġso": 636,
      "ĠÐ½ÐµÐ±": 637,
      "ÑģÐºÑĥÑģ": 638,
      "rain": 639,
      "ÑģÑĤÐ²ÐµÐ½Ð½ÑĭÐ¹": 640,
      "ĠÑĨÐ¸ÐºÐ»": 641,
      "ÑģÐºÑĥÑģÑģÑĤÐ²ÐµÐ½Ð½ÑĭÐ¹": 642,
      "Ġ60": 643,
      "Ġ+": 644,
      "Ð°Ñħ": 645,
      "Ġblu": 646,
      "ÑģÐºÐ°Ð·": 647,
      "Ġblue": 648,
      "Ðĺ": 649,
      "as": 650,
      "ay": 651,
      "ug": 652,
      "Â²": 653,
      "ÑĭÑħ": 654,
      "ÑģÑĤÐ°Ð»": 655,
      "Ð¾ÑģÑĮ": 656,
      "Ġkm": 657,
      "ÑģÑĤÐ°Ð»Ð¾ÑģÑĮ": 658,
      "il": 659,
      "old": 660,
      "Ð§": 661,
      "Ð½Ð°": 662,
      "ĠÐ¿ÐµÑĢ": 663,
      "Ð°ÐºÑĤ": 664,
      "Ð¸ÑĤÑģÑı": 665,
      "Ġhold": 666,
      "ight": 667,
      "Ġr": 668,
      "Ð¼Ð½": 669,
      "ÑĥÐ¹ÑĤÐµ": 670,
      "Ġfi": 671,
      "ĠÑģÐ²ÐµÑĤ": 672,
      "ri": 673,
      "ĠÐ¡": 674,
      "ÑģÑĤÑĢ": 675,
      "ÐµÑģÑģ": 676,
      "ĠÐ¿ÑĢÐ¾ÑģÑĤÑĭ": 677,
      "ÑĢÐ°Ñī": 678,
      "Ġbre": 679,
      "Ġballs": 680,
      "ĠÑĥÑģÐ»": 681,
      "Ġscatter": 682,
      "Ġone": 683,
      "ĠÑĥÑģÐ»Ð¾Ð²": 684,
      "Ð»Ð¾Ðº": 685,
      "Ð´Ð¸Ð½": 686,
      "achin": 687,
      "mp": 688,
      "use": 689,
      "ĠR": 690,
      "Ð°ÐµÐ¼": 691,
      "ÐµÑĤÑĭ": 692,
      "ĠÐ¾Ð±ÑĬÑıÑģÐ½Ð¸": 693,
      "Ð°Ð±": 694,
      "erat": 695,
      "Ð¸Ð¼ÐµÑĢ": 696,
      "bed": 697,
      "ke": 698,
      "ken": 699,
      "ĠÐ»": 700,
      "ĠÐł": 701,
      "ÐµÑĢÐ°": 702,
      "ÑģÐ¸Ñģ": 703,
      "Ġas": 704,
      "ĠÑģÐµÐ±": 705,
      "ĠÑģÐ¸Ð½ÑĤ": 706,
      "Ð°ÐºÑģÐ¸Ñģ": 707,
      "ĠÐ½Ðµ": 708,
      "Ġtoken": 709,
      "Ġgen": 710,
      "ĠÑģÐ¸Ð½ÑĤÐ°ÐºÑģÐ¸Ñģ": 711,
      "fic": 712,
      "oo": 713,
      "Ġx": 714,
      "ĠÐļÐ°Ðº": 715,
      "Ð¸ÑģÑĤ": 716,
      "Ð³Ð¾": 717,
      "Ð¾ÑĢÐ¼": 718,
      "Ð¾ÑĢÐ¾Ð´": 719,
      "Ġstep": 720,
      "ĠÐ´Ð°Ð½Ð½ÑĭÑħ": 721,
      "gra": 722,
      "ĠÐ¯": 723,
      "our": 724,
      "Ġexplain": 725,
      "ad": 726,
      "iable": 727,
      "ng": 728,
      "po": 729,
      "´Ð°Ñĩ": 730,
      "Ġi": 731,
      "ĠÐľ": 732,
      "ÑģÐµ": 733,
      "Ð½Ñı": 734,
      "ÑıÑĤ": 735,
      "Ð°Ð»ÐµÐ½ÑĮ": 736,
      "ĠÑĩÐ°Ð¹": 737,
      "ĠÐ¼Ð°Ð»ÐµÐ½ÑĮ": 738,
      "ariable": 739,
      "Ġvariable": 740,
      "ĠÑĢÐ°ÑģÑģÐµ": 741,
      "ĠÐ·Ð°Ð´Ð°Ñĩ": 742,
      "ĠÐ¼Ð°Ð»ÐµÐ½ÑĮÐº": 743,
      "jec": 744,
      "ĠÑħ": 745,
      "ÐµÐµ": 746,
      "Ġfro": 747,
      "Ġ11": 748,
      "ace": 749,
      "Ġli": 750,
      "Ġcode": 751,
      "jects": 752,
      "Ġfrom": 753,
      "ÐŁÑĢ": 754,
      "bout": 755,
      "Ġabout": 756,
      "ĠÐ²ÐµÑģ": 757,
      "Ð½Ð¸Ð¼": 758,
      "Ð½Ð¸Ð³": 759,
      "ĠÐ¿ÑĢÐ¸Ð²ÐµÑĤ": 760,
      "Ġpre": 761,
      "Ġpar": 762,
      "mbed": 763,
      "ÑĥÐ±": 764,
      "ĠÑģÐº": 765,
      "ĠÐ²ÐµÑĩ": 766,
      "ĠÐºÐ°Ð¶": 767,
      "ses": 768,
      "ĠÐ´ÐµÐ½ÑĮ": 769,
      "ĠÐ¼Ð¸Ð½": 770,
      "Ð¾ÑģÐ¼Ð¾Ñģ": 771,
      "ice": 772,
      "ÐµÐ´ÑĥÑİÑī": 773,
      "ĠÑģÐ»ÐµÐ´ÑĥÑİÑī": 774,
      "Ð¾Ð±ÑĢÑĭÐ¹": 775,
      "ĠÐ·Ð°Ð¿": 776,
      "Ġlearning": 777,
      "Ð´ÑĭÐ¹": 778,
      "Ġintelligence": 779,
      "mbedding": 780,
      "ĠÐ²ÐµÑĩÐµÑĢ": 781,
      "ĠÐºÐ°Ð¶Ð´ÑĭÐ¹": 782,
      "ĠÐ¼Ð¸Ð½ÑĥÑĤ": 783,
      "ĠÑģÐ»ÐµÐ´ÑĥÑİÑīÐ¸Ð¹": 784,
      "ÑĢÐ¾Ð¼": 785,
      "Ð»Ð¾": 786,
      "ÑĩÐ¸ÑĤ": 787,
      "ĠÐ²Ð°Ñģ": 788,
      "ĠÐºÐ¼": 789,
      "Ð°Ð»Ð°": 790,
      "ĠÐ¾ÑģÑĤÐ°Ð»Ð¾ÑģÑĮ": 791,
      "Ð´Ð°Ð»Ð°": 792,
      "ĠÐ¾ÑĤÐ´Ð°Ð»Ð°": 793,
      "ĠÑģÐ»Ð¾Ð²": 794,
      "Ġmost": 795,
      "ĠÐ¿ÑĢÐµÐ´ÑģÐºÐ°Ð·": 796,
      "ĠÐ±ÑĭÐ»Ð¾": 797,
      "Ġ150": 798,
      "Ð§ÑĤÐ¾": 799,
      "ĠÐ¿ÑĢÐµÐ´ÑģÐºÐ°Ð·ÑĭÐ²": 800,
      "ÑģÑĦ": 801,
      "Ð°Ð³": 802,
      "ĠÐ¸ÑģÐºÑĥÑģÑģÑĤÐ²ÐµÐ½Ð½ÑĭÐ¹": 803,
      "Ð²Ð¾": 804,
      "ĠÐ³ÐµÐ½": 805,
      "ÑĢÐ°Ð½ÑģÑĦ": 806,
      "Ð¾ÑĢÐ¼ÐµÑĢ": 807,
      "ÑĢÐ°Ð½ÑģÑĦÐ¾ÑĢÐ¼ÐµÑĢ": 808,
      "Ð¸Ð¿": 809,
      "Ġpl": 810,
      "arth": 811,
      "ĠEarth": 812,
      "Ġprogra": 813,
      "PI": 814,
      "ast": 815,
      "ĠG": 816,
      "ĠÐĿ": 817,
      "Ð½Ð°Ñı": 818,
      "Ġthat": 819,
      "Ð±Ð»Ð¾Ðº": 820,
      "Ð¾Ð²Ð¸ÑĤÑĮ": 821,
      "Ġmachin": 822,
      "itt": 823,
      "ĠÑĥÐ¼Ð½": 824,
      "Ð³Ð¾ÑĤ": 825,
      "ĠÐ¿ÑĢÐ¾ÑĨ": 826,
      "ick": 827,
      "ĠÑĢÐ°Ð±": 828,
      "ĠÑıÐ±Ð»Ð¾Ðº": 829,
      "Ġtea": 830,
      "ĠÐ¿ÑĢÐ¸Ð³Ð¾ÑĤ": 831,
      "ĠÑĤÐµÐºÑģÑĤÐ°": 832,
      "ĠÑĥÐ¼Ð½Ð¾Ð¶": 833,
      "ĠÑĢÐ°Ð±Ð¾ÑĤ": 834,
      "ĠÐ¿ÑĢÐ¸Ð³Ð¾ÑĤÐ¾Ð²Ð¸ÑĤÑĮ": 835,
      "king": 836,
      "ps": 837,
      "Ġad": 838,
      "Ġsm": 839,
      "Ġsp": 840,
      "ath": 841,
      "ĠÐ¾ÑĤÐ²": 842,
      "Ġrec": 843,
      "ĠÐ½Ð¾Ð²Ð¾Ð³Ð¾": 844,
      "Ġwords": 845,
      "Ð°ÐºÑĤÐ¸Ðº": 846,
      "ction": 847,
      "ific": 848,
      "rt": 849,
      "Ð°ÑĪ": 850,
      "Ġtim": 851,
      "Ð¼Ð¸": 852,
      "ĠÐºÐ½Ð¸Ð³": 853,
      "ĠÐ½ÐµÐ¹": 854,
      "Ġbe": 855,
      "ĠÐµÐ´": 856,
      "ĠÐ¶Ð°Ð½": 857,
      "ÑĢÐ¾ÑģÐµÑĤ": 858,
      "Ġlike": 859,
      "ificial": 860,
      "rtificial": 861,
      "pp": 862,
      "rin": 863,
      "Ð¯": 864,
      "Ð¸Ð½Ð¸": 865,
      "ÑĥÐ¼": 866,
      "ÑĥÐµÑĤ": 867,
      "ĠÐ¿Ð¾Ñģ": 868,
      "Ð¾Ð»ÑĥÐ±": 869,
      "ort": 870,
      "ĠÐ±ÑĥÐ´": 871,
      "Ð¾ÑĢÐ¾": 872,
      "ĠÐ³Ð¾Ð»ÑĥÐ±": 873,
      "ĠÐ½ÐµÐ±Ð¾": 874,
      "ĠÐ±ÑĥÐ´ÐµÑĤ": 875,
      "ĠÐ³Ð¾Ð»ÑĥÐ±Ð¾Ðµ": 876,
      "ase": 877,
      "tor": 878,
      "ĠÐ¡Ðº": 879,
      "Ð¸Ñħ": 880,
      "Ð¸Ð´": 881,
      "ÑĢÐ¸": 882,
      "ĠÐ¿Ð¾Ð´": 883,
      "Ð»Ñı": 884,
      "Ð¾Ð²ÐµÑĤ": 885,
      "ĠÐ¼Ð¾Ð³Ñĥ": 886,
      "Ġhour": 887,
      "ĠÐ¿ÑĢÐ¾ÐµÐºÑĤ": 888,
      "Ġnum": 889,
      "Ð°ÑģÑĤÑĮ": 890,
      "urs": 891,
      "ĠÐ¿Ð¾Ð²ÑĤÐ¾ÑĢÑıÐµÑĤ": 892,
      "ĠÑĥÑģÐ»Ð¾Ð²Ð¸Ðµ": 893,
      "ave": 894,
      "Ð¸Ñİ": 895,
      "ity": 896,
      "Ð°ÑģÑģ": 897,
      "ess": 898,
      "Ð·Ð°": 899,
      "ĠÐµÐ³Ð¾": 900,
      "mming": 901,
      "ĠÑģÐºÐ¾Ð»ÑĮÐºÐ¾": 902,
      "bug": 903,
      "ience": 904,
      "ĠÐ¿ÑĢÐµÐ²": 905,
      "Ġsim": 906,
      "ĠÑĩÐ°Ñģ": 907,
      "end": 908,
      "Ð¸Ð»ÑĮ": 909,
      "Ġ56": 910,
      "Ġscience": 911,
      "ÐµÐ³Ð¾": 912,
      "Ġdebug": 913,
      "ĠÐºÐ¾ÑĤÐ¾ÑĢÑĭ": 914,
      "Ġnext": 915,
      "raction": 916,
      "Ġboxes": 917,
      "ĠÑĢÐ°ÑģÑģÐµÐ¸Ð²": 918,
      "ĠÐ¿ÑĢÐµÐ²ÑĢÐ°Ñī": 919,
      "Ġsimple": 920,
      "ly": 921,
      "ok": 922,
      "ypo": 923,
      "ÐĴ": 924,
      "ĠS": 925,
      "ĠÐ²Ð¾Ð´": 926,
      "ÐµÐ»ÐµÐ·": 927,
      "Ġhypo": 928,
      "ĠÐ°Ð½": 929,
      "ĠÐ¶ÐµÐ»ÐµÐ·": 930,
      "ÑĥÐ»Ñı": 931,
      "Ġhypot": 932,
      "ĠÐĳ": 933,
      "ĠÐĺÐĺ": 934,
      "av": 935,
      "ÑģÐ¸Ð½ÑĤ": 936,
      "ÑĢÐµÐ¼": 937,
      "Ġth": 938,
      "ĠÐ²Ñģ": 939,
      "ĠÐ²Ð¾Ðº": 940,
      "ĠÐ²ÑĢÐµÐ¼": 941,
      "ĠÐºÐ¾Ð½": 942,
      "Ġdro": 943,
      "Ġeach": 944,
      "Ġembedding": 945,
      "Ġlist": 946,
      "Ð¾ÑĤÐ¾ÑģÐ¸Ð½ÑĤ": 947,
      "ĠÐ¸Ð½ÑĤÐµÑĢ": 948,
      "ĠÐ·Ð°Ð´Ð°ÑĩÐ¸": 949,
      "ĠÐ¼Ð°Ð»ÐµÐ½ÑĮÐºÐ¸Ðµ": 950,
      "Ġparts": 951,
      "ĠÐ²Ð¾ÐºÑĢÑĥÐ³": 952,
      "ĠÐºÐ¾Ð½ÑĤ": 953,
      "Ð¾ÑĤÐ¾ÑģÐ¸Ð½ÑĤÐµÐ·": 954,
      "ky": 955,
      "ÐµÐ½Ð¸": 956,
      "ĠÐ²Ð¾Ð·": 957,
      "Ġsky": 958,
      "ĠÐºÐ¸ÑģÐ»": 959,
      "ĠÐ¾Ð²Ð¾": 960,
      "Ġwater": 961,
      "ions": 962,
      "ÑīÐ°Ð¼Ð¸": 963,
      "ĠÐ§ÐµÐ¼": 964,
      "Ð¸ÑĤÑĮÑģÑı": 965,
      "ÑĭÐ²Ð°ÐµÑĤ": 966,
      "Ð¸ÑģÑĤÐµÐ¼": 967,
      "Ġplan": 968,
      "ĠÐºÐ¸ÑģÐ»Ð¾ÑĢÐ¾Ð´": 969,
      "ĠÐ¾Ð²Ð¾ÑīÐ°Ð¼Ð¸": 970,
      "bit": 971,
      "ir": 972,
      "lis": 973,
      "Ġ9": 974,
      "ress": 975,
      "Ġwh": 976,
      "ĠÐ´ÑĢÑĥÐ³": 977,
      "own": 978,
      "ÑĳÐ¼": 979,
      "ĠEng": 980,
      "del": 981,
      "Ġmodel": 982,
      "Ġorbit": 983,
      "Ġhel": 984,
      "ĠÑĢÐ°Ð±Ð¾ÑĤÐ°ÐµÑĤ": 985,
      "lish": 986,
      "ĠEnglish": 987,
      "fitt": 988,
      "ull": 989,
      "ÑĢÐ¾Ð½": 990,
      "ÐºÐ°": 991,
      "ĠÐ²Ð¸Ð´": 992,
      "ĠÐ¿ÑĢÐ°ÐºÑĤÐ¸Ðº": 993,
      "Ġsl": 994,
      "Ġthen": 995,
      "ĠÐ´Ð»Ñı": 996,
      "ĠÐ¼Ðµ": 997,
      "ĠÑĥÐ¶": 998,
      "Ð¸ÐºÑĥ": 999,
      "ĠÑĢÐ°Ð·": 1000,
      "ĠÐ°ÑĤÐ¾Ð¼": 1001,
      "Ġcomp": 1002,
      "ĠÐ¿ÑĢÐ¾ÑģÑĤÐ¾Ðµ": 1003,
      "ÑħÐ¾Ð´Ð¸ÑĤ": 1004,
      "verfitt": 1005,
      "ĠÐ¡Ð¿": 1006,
      "ĠGit": 1007,
      "Ġsmall": 1008,
      "ĠÐ¡ÐºÐ¾Ð»ÑĮÐºÐ¾": 1009,
      "verfitting": 1010,
      "ĠÐķ": 1011,
      "eep": 1012,
      "vity": 1013,
      "Â°": 1014,
      "Ġ0": 1015,
      "ĠÑģÑĤÑĢ": 1016,
      "ĪÐ°Ð³": 1017,
      "ÑģÐ»Ð¸": 1018,
      "ÑĥÐ¶": 1019,
      "Ġtow": 1020,
      "Ð°ÐºÐ¾Ð²": 1021,
      "Ġmin": 1022,
      "ĠÑĪÐ°Ð³": 1023,
      "Ð°ÑĤÐµÐ¼": 1024,
      "Ġfraction": 1025,
      "ĠÑĥÐ¿": 1026,
      "ard": 1027,
      "ÑĨÐ¸Ð¸": 1028,
      "ravity": 1029,
      "ĠAPI": 1030,
      "Ġinto": 1031,
      "Ġprogramming": 1032,
      "Ġtime": 1033,
      "Ġtoward": 1034,
      "ive": 1035,
      "tice": 1036,
      "¦Ð¸ÐºÐ»": 1037,
      "Ġtrain": 1038,
      "ĠÐ¾Ð±ÑĬ": 1039,
      "Ġprac": 1040,
      "ÐµÐ½Ð½ÑĭÐµ": 1041,
      "enses": 1042,
      "Ġpractice": 1043,
      "The": 1044,
      "):": 1045,
      "Hell": 1046,
      "¤ÑĥÐ½ÐºÑĨÐ¸": 1047,
      "Ð¾Ñĩ": 1048,
      "ÑĤÐ°ÑĤ": 1049,
      "ÑĭÑĪ": 1050,
      "ÑĮÑĤÐ°ÑĤ": 1051,
      "Ġapp": 1052,
      "Ġpo": 1053,
      "Ð´ÑĢÐ°Ð²": 1054,
      "ĠÐ¼ÑĭÑĪ": 1055,
      "Ð¾Ð»ÑĮÐ·": 1056,
      "ÐµÐ·ÑĥÐ»": 1057,
      "ĠÑĢÐµÐ·ÑĥÐ»": 1058,
      "ÑģÑĤÐ²ÑĥÐ¹ÑĤÐµ": 1059,
      "ĠÐŁÑĢÐ¸Ð¼ÐµÑĢ": 1060,
      "ÑģÑĤÐ¾Ñı": 1061,
      "Ġshort": 1062,
      "ĠÑĦÑĥÐ½ÐºÑĨÐ¸Ñı": 1063,
      "ĠÐ¾ÑĤÐ²ÐµÑĤÑĭ": 1064,
      "Ġrecurs": 1065,
      "ĠÐ¿Ð¾ÑģÐ¾Ð²ÐµÑĤ": 1066,
      "Hello": 1067,
      "¤ÑĥÐ½ÐºÑĨÐ¸Ñı": 1068,
      "Ð´ÑĢÐ°Ð²ÑģÑĤÐ²ÑĥÐ¹ÑĤÐµ": 1069,
      "ĠÐ¼ÑĭÑĪÐ»": 1070,
      "ĠÑĢÐµÐ·ÑĥÐ»ÑĮÑĤÐ°ÑĤ": 1071,
      "am": 1072,
      "me": 1073,
      "Ġrain": 1074,
      "ÑĭÑĩÐ¸ÑĤ": 1075,
      "ĠÐ¿Ð¾Ð¼Ð¾Ð³": 1076,
      "ĠÐ¸ÑģÑĤ": 1077,
      "Ð²Ñĳ": 1078,
      "here": 1079,
      "ĠÐ¾Ð½Ð°": 1080,
      "Ġprin": 1081,
      "ÐµÑĢÐµÐ·": 1082,
      "Ġbas": 1083,
      "Ð·Ð´Ñĭ": 1084,
      "Ð¸Ð²Ð°Ð¹ÑĤÐµ": 1085,
      "ÑĥÑĩÐ°ÑĤÑĮ": 1086,
      "ĠÐ²ÑĭÑħÐ¾Ð´": 1087,
      "ĠÐ¸Ð·ÑĥÑĩÐ°ÑĤÑĮ": 1088,
      "ĠÐ¿ÑĢÐ¾Ð³ÑĢÐ°Ð¼Ð¼Ð¸ÑĢÐ¾Ð²Ð°Ð½Ð¸Ðµ": 1089,
      "ĠÑĦÑĥÐ½ÐºÑĨÐ¸Ð¸": 1090,
      "ĠÐĲÐ½Ð¸": 1091,
      "ĠÑĨÐ¸ÐºÐ»Ñĭ": 1092,
      "Ġgenerat": 1093,
      "Ġhours": 1094,
      "ÑĭÑĩÐ¸ÑĤÐ°ÐµÐ¼": 1095,
      "Ð²ÑĳÐ·Ð´Ñĭ": 1096,
      "Ġbasic": 1097,
      "bjects": 1098,
      "ets": 1099,
      "Ð°Ð½Ð¸Ðµ": 1100,
      "ÑĤÐ¼Ð¾Ñģ": 1101,
      "ÑĢÐ½ÑĭÐ¹": 1102,
      "Ġtw": 1103,
      "Ġare": 1104,
      "ĠÑĤÐ¾Ð»ÑĮÐºÐ¾": 1105,
      "ÐµÑĢÐ¸ÑĢ": 1106,
      "Ġfun": 1107,
      "Ġobjects": 1108,
      "Ġrep": 1109,
      "Ġkn": 1110,
      "ĠÐ´ÐµÐ»Ð°": 1111,
      "ĠÐ³ÐµÐ½ÐµÑĢÐ¸ÑĢ": 1112,
      "Ð°ÑĪÐ¸Ð½": 1113,
      "ÑĢÐ¾ÑģÐµÑĤÐ¸": 1114,
      "Ġplanets": 1115,
      "ÑĤÐ¼Ð¾ÑģÑĦ": 1116,
      "ax": 1117,
      "ail": 1118,
      "dic": 1119,
      "ÐĹ": 1120,
      "Ðļ": 1121,
      "ÑĤÑĢÐ°Ð½ÑģÑĦÐ¾ÑĢÐ¼ÐµÑĢ": 1122,
      "Ð»Ð°Ð²": 1123,
      "ÑħÐ°": 1124,
      "est": 1125,
      "Ġyour": 1126,
      "Ġread": 1127,
      "ĠÐ¿ÑĢÐ¸Ð½Ð¸Ð¼": 1128,
      "Ġworri": 1129,
      "ĠÑģÐµÐ±Ðµ": 1130,
      "Ġtokens": 1131,
      "Ġpredic": 1132,
      "ĠÑĥÐ¼Ð½Ð¾Ð¶Ð¸ÑĤÑĮ": 1133,
      "ĠÑĩÐ°ÑģÐ°": 1134,
      "Ġhelp": 1135,
      "Ġworries": 1136,
      "os": 1137,
      "Ġle": 1138,
      "Ġqu": 1139,
      "ÑĤÐ¾Ð±": 1140,
      "ÑĢÐ¾Ð±": 1141,
      "Ð½ÐµÐ²": 1142,
      "ÑĥÐº": 1143,
      "ÑıÐ¶": 1144,
      "ĠÐ²Ð°ÑĤ": 1145,
      "ĠÐ¸Ð¼": 1146,
      "les": 1147,
      "ĠÑĤÑıÐ¶": 1148,
      "ĠÐ½Ð°Ð·": 1149,
      "Ð¸ÑĤÐ°Ð¹ÑĤÐµ": 1150,
      "ÐµÐ»ÐµÐµ": 1151,
      "ĠÐ·Ð°Ðº": 1152,
      "Ġfac": 1153,
      "ÐµÐºÑģÑĤ": 1154,
      "Ġequ": 1155,
      "ÐµÐ´Ð½ÐµÐ²": 1156,
      "Ð°Ð½ÑĤ": 1157,
      "ĠÑĢÐµÐ³": 1158,
      "Ġgravity": 1159,
      "Ð¶ÐµÐ´Ð½ÐµÐ²": 1160,
      "ĠÐµÐ¶ÐµÐ´Ð½ÐµÐ²": 1161,
      "ĠÑĩÐ¸ÑģÐ»Ð°": 1162,
      "ĠÐ¾Ð±ÑĥÑĩÐµÐ½Ð¸Ðµ": 1163,
      "ĠÑĤÐµÐºÑģÑĤ": 1164,
      "Ð¾Ð¿ÑĢÐ¾Ð±": 1165,
      "utes": 1166,
      "ĠÐºÐ½Ð¸Ð³Ñĥ": 1167,
      "ĠÐ¶Ð°Ð½ÑĢ": 1168,
      "torial": 1169,
      "ĠÐ¶ÐµÐ»ÐµÐ·Ð°": 1170,
      "ĠÐºÐ¾Ð½ÑĤÐµÐºÑģÑĤ": 1171,
      "ĠÐ¿ÑĢÐ°ÐºÑĤÐ¸ÐºÐ°": 1172,
      "ÑĤÐ¾Ð±Ñĭ": 1173,
      "ĠÐ²Ð°ÑĤÑĭ": 1174,
      "ĠÑĤÑıÐ¶ÐµÐ»ÐµÐµ": 1175,
      "Ġfactorial": 1176,
      "Ġequal": 1177,
      "ĠÑĢÐµÐ³ÑĥÐ»Ñı": 1178,
      "Ð¾Ð¿ÑĢÐ¾Ð±ÑĥÐ¹ÑĤÐµ": 1179,
      "ĠÐŁÐ¾Ð¼Ð¾Ð³": 1180,
      "ĠÐŁÑĢÐ¸Ð²ÐµÑĤ": 1181,
      "ÐŁÑĢÐ¸Ð²ÐµÑĤ": 1182,
      "'m": 1183,
      "ble": 1184,
      "lve": 1185,
      "ure": 1186,
      "Ðľ": 1187,
      "Ñį": 1188,
      "ĠW": 1189,
      "ĶÐ¾Ð±ÑĢÑĭÐ¹": 1190,
      "Ð°Ð´": 1191,
      "ĠÐ¿Ð¾Ðº": 1192,
      "ĠÑģÐ¾ÑĤ": 1193,
      "ĠÑģÐ¸Ð»ÑĮ": 1194,
      "ÐµÑĤÑĮ": 1195,
      "Ġsy": 1196,
      "ĠÑĤÑĭ": 1197,
      "ĠÐ¾Ð¿": 1198,
      "ĠÐ¾Ð´Ð¸Ð½": 1199,
      "Ġbu": 1200,
      "ĠÐ´ÑĭÑħ": 1201,
      "ĠÑĥÑĩ": 1202,
      "ÐµÐ¼Ñĥ": 1203,
      "Ġloo": 1204,
      "ĠÑģÐ¿ÑĢÐ°Ð²": 1205,
      "ĠÐµÑĳ": 1206,
      "Ġ50": 1207,
      "Ġcond": 1208,
      "ÐµÑģÑģÐ¾Ð¼": 1209,
      "ĠÐľÐ¾Ð³Ñĥ": 1210,
      "ĠÐ¿ÑĢÐ¾ÑĨÐµÐ½ÑĤ": 1211,
      "ĠÑĢÐ°ÑģÑģÐµÐ¸Ð²Ð°ÐµÑĤ": 1212,
      "ĠÐ¸Ð½ÑĤÐµÑĢÐµÑģ": 1213,
      "ĠÑģÑĤÑĢÐµÑģÑģÐ¾Ð¼": 1214,
      "blem": 1215,
      "ĠÑģÐ¾ÑĤÐ°Ñı": 1216,
      "ĠÑģÐ¸Ð»ÑĮÐ½ÐµÐµ": 1217,
      "ĠÑģÐ¿ÑĢÐ°Ð²Ð¸ÑĤÑĮÑģÑı": 1218,
      "ies": 1219,
      "lf": 1220,
      "om": 1221,
      "te": 1222,
      "ĠC": 1223,
      "ÑģÐ¿": 1224,
      "Ð¸Ð·Ð°": 1225,
      "ĠÑģÐ¸ÑģÑĤÐµÐ¼": 1226,
      "ĠÐ²Ð¾Ð¿": 1227,
      "ĠÐ¿ÑĢÐ°Ð²": 1228,
      "ĠÐºÐ¾Ð¼": 1229,
      "Ð¾Ð²Ð°Ñı": 1230,
      "ision": 1231,
      "Ð¾Ð»Ð½": 1232,
      "Ġwe": 1233,
      "self": 1234,
      "ĠÐ·ÐµÐ»": 1235,
      "Ġden": 1236,
      "Ġmean": 1237,
      "ÑģÑĤÐ²Ð°": 1238,
      "ĠÐ²ÑĭÐ·": 1239,
      "ĠÑĦÐ¾ÑĤÐ¾ÑģÐ¸Ð½ÑĤÐµÐ·": 1240,
      "xplain": 1241,
      "ĠÑıÐ·ÑĭÐºÐ¾Ð²Ð°Ñı": 1242,
      "Ġscatters": 1243,
      "Ġmachine": 1244,
      "ĠÐ²Ð¾Ð¿ÑĢÐ¾Ñģ": 1245,
      "ĠThe": 1246,
      "ag": 1247,
      "ap": 1248,
      "aking": 1249,
      "ls": 1250,
      "row": 1251,
      "tw": 1252,
      "ÑĢÐ°Ð·": 1253,
      "ÐºÐ°Ñħ": 1254,
      "Ð¹ÑģÐº": 1255,
      "Ð¾Ð²Ð°ÑĤÑĮ": 1256,
      "ata": 1257,
      "ĠÑĩÐ°ÑģÑĤÑĮ": 1258,
      "ange": 1259,
      "enc": 1260,
      "enuse": 1261,
      "Ġtheore": 1262,
      "Ġdata": 1263,
      "Ġ100": 1264,
      "Ð³Ð»Ð¸": 1265,
      "ÑĥÑĩÐ¸ÑĤÑĮ": 1266,
      "ĠIt": 1267,
      "Ð½Ð¾ÑģÑĤ": 1268,
      "ĠÐ²ÑĭÑĥÑĩÐ¸ÑĤÑĮ": 1269,
      "ĠPythag": 1270,
      "ally": 1271,
      "Ġform": 1272,
      "orean": 1273,
      "Ġrange": 1274,
      "ĠÐ¿ÑĢÐ¾ÑģÑĤÑĭÐµ": 1275,
      "ĠÑģÐµÐ±Ñı": 1276,
      "ctions": 1277,
      "ĠÐ°Ð½Ð³Ð»Ð¸": 1278,
      "Ġhypotenuse": 1279,
      "Ð¹ÑģÐºÐ¸Ð¹": 1280,
      "Ġtheorem": 1281,
      "ĠPythagorean": 1282,
      "ĠÐ°Ð½Ð³Ð»Ð¸Ð¹ÑģÐºÐ¸Ð¹": 1283,
      "You": 1284,
      "rit": 1285,
      "ĠÑģÑĤ": 1286,
      "ĠYou": 1287,
      "ÐµÑĪ": 1288,
      "ĠÐ¿Ð¾Ð¼": 1289,
      "Ġtin": 1290,
      "ÑĮÑĤÐµ": 1291,
      "Ġartificial": 1292,
      "ĠÐºÐ¾ÑģÐ¼Ð¾Ñģ": 1293,
      "ĠÑĤÐ¸Ð¿": 1294,
      "any": 1295,
      "Ġwal": 1296,
      "Ġwrit": 1297,
      "Ġmany": 1298,
      "ĠÐ·Ð²ÑĳÐ·Ð´Ñĭ": 1299,
      "ĠÑĥÑĢÐ°Ð²": 1300,
      "Ġhave": 1301,
      "Ð½ÐµÐ½Ð¸Ðµ": 1302,
      "Ð°Ð½ÐµÑĤÑĭ": 1303,
      "Ġstress": 1304,
      "ĠÑĢÐ°ÑģÑĤ": 1305,
      "ĠÑģÐ»Ð¾Ð²Ð°": 1306,
      "ĠÐ¿ÑĢÐ¾ÑģÑĤÐ¾": 1307,
      "Ġtext": 1308,
      "Ġdeal": 1309,
      "plets": 1310,
      "Ġexpan": 1311,
      "ĠÐ¿Ð»Ð°Ð½ÐµÑĤÑĭ": 1312,
      "Ġbreath": 1313,
      "ĠÐ»Ñİ": 1314,
      "ĠÐ¿ÑĢÐµÐ´ÑģÐºÐ°Ð·ÑĭÐ²Ð°ÑĤÑĮ": 1315,
      "ĠÐĳÐ¾Ð»ÑĮÑĪ": 1316,
      "Ġdroplets": 1317,
      "Ð¾ÑĩÑĮ": 1318,
      "ÐµÑĪÐ¸": 1319,
      "Ġtiny": 1320,
      "ĠÑĥÑĢÐ°Ð²Ð½ÐµÐ½Ð¸Ðµ": 1321,
      "Ġbreathing": 1322,
      "Ð½Ð°Ñĩ": 1323,
      "ĠÑģÑĭ": 1324,
      "ĠÐ¾Ð´": 1325,
      "ĠÐ¾Ð±Ñ": 1326,
      "ÑİÑĤ": 1327,
      "Ġ20": 1328,
      "ÑĨÐ¸Ñı": 1329,
      "ĠÐ²ÑĭÐ¿": 1330,
      "ĠÐ±Ð¾Ð»ÑĮÑĪÐµ": 1331,
      "ÑģÑĤÐ¾Ð¸ÑĤ": 1332,
      "ĠÑģÐ¾ÑģÑĤÐ¾Ð¸ÑĤ": 1333,
      "ĠÐ¿Ð¾Ð²ÑĤÐ¾ÑĢÑı": 1334,
      "Ġadd": 1335,
      "Ġspace": 1336,
      "ĠÐ²ÑģÑĳ": 1337,
      "ĠÑĥÐ¶Ð¸Ð½": 1338,
      "ĠÐ¾Ð±Ñī": 1339,
      "ĠÐŀÐ´Ð¸Ð½": 1340,
      "'s": 1341,
      "ead": 1342,
      "ption": 1343,
      "sist": 1344,
      "uter": 1345,
      "Ð¾ÑģÑĤ": 1346,
      "ÑĤÑĥ": 1347,
      "Ġass": 1348,
      "Ġair": 1349,
      "ĠÑģÐµÐ³": 1350,
      "ĠÐ²ÐµÐº": 1351,
      "ĠÐ²ÑħÐ¾Ð´": 1352,
      "ĠÐ¿ÑĢÐ¾Ð³ÑĢ": 1353,
      "Ð¾Ð´Ð½Ñı": 1354,
      "Ġpull": 1355,
      "orm": 1356,
      "Ġdown": 1357,
      "Ġdail": 1358,
      "Ð°ÑİÑĤÑģÑı": 1359,
      "Ġkeep": 1360,
      "ĠÑĤÐ¾ÐºÐµÐ½Ð°": 1361,
      "ĠÐºÐ¾ÑĤÐ¾ÑĢÑĭÐ¹": 1362,
      "ĠÐºÐ¾ÑĤÐ¾ÑĢÑĭÐ¼": 1363,
      "Ġcomputer": 1364,
      "ÑĤÑĥÑĢÑĭ": 1365,
      "ĠÑģÐµÐ³Ð¾Ð´Ð½Ñı": 1366,
      "ĠÐ²ÐµÐºÑĤÐ¾ÑĢ": 1367,
      "Ġpulls": 1368,
      "Ġdaily": 1369,
      "Ġkeeps": 1370,
      "Pyth": 1371,
      "Python": 1372,
      "em": 1373,
      "nt": 1374,
      "rst": 1375,
      "Ð½ÑĳÐ¼": 1376,
      "Ð°Ð¿": 1377,
      "ĠÐ¿Ð¾Ð·": 1378,
      "Ð²Ð¾Ð»": 1379,
      "hen": 1380,
      "ises": 1381,
      "ĠÐ´Ð¾Ð±ÑĢÑĭÐ¹": 1382,
      "ĠÐ´Ð½ÑĳÐ¼": 1383,
      "ÐµÐ¼Ð»Ð¸": 1384,
      "ÑĪÐ¸ÑĢ": 1385,
      "Ġtop": 1386,
      "ĠÐĹÐµÐ¼Ð»Ð¸": 1387,
      "ĠÑĢÐ°ÑģÑĪÐ¸ÑĢ": 1388,
      "ĠÐºÐ¾Ð´Ð°": 1389,
      "Ġright": 1390,
      "Ġfirst": 1391,
      "ĠÐ·Ð°Ð¿Ð°Ñģ": 1392,
      "ÐµÐ½Ð¸Ð¸": 1393,
      "Ġminutes": 1394,
      "Ġsynt": 1395,
      "ĠÐ¿Ð¾Ð·Ð²Ð¾Ð»": 1396,
      "ĠÑĢÐ°ÑģÑĪÐ¸ÑĢÑıÐµÑĤ": 1397,
      "Ġsyntax": 1398,
      "ĠÐ¿Ð¾Ð·Ð²Ð¾Ð»ÑıÐµÑĤ": 1399,
      "15": 1400,
      "ĠSun": 1401,
      "80": 1402,
      "For": 1403,
      "ile": 1404,
      "ild": 1405,
      "mos": 1406,
      "oes": 1407,
      "omm": 1408,
      "phere": 1409,
      "±Ñĭ": 1410,
      "Ġen": 1411,
      "ĠÐĽ": 1412,
      "ÐµÑī": 1413,
      "ÐµÑģÑĤÐ¾": 1414,
      "Ð½Ð¾Ð¹": 1415,
      "ÑĭÐ¹": 1416,
      "Ð»ÐµÐº": 1417,
      "ĠÐ²Ð¼": 1418,
      "ĠÐºÐ¾Ð»": 1419,
      "ĠÑĤÐµÐ¼": 1420,
      "Ġcase": 1421,
      "ers": 1422,
      "Ġbase": 1423,
      "Ð°Ð¶Ð½Ð¾": 1424,
      "ĠÐ´ÐµÐ¹": 1425,
      "Ġfar": 1426,
      "ÑĨÐ°": 1427,
      "ĠÐ¿ÑĢÐ¾ÑħÐ¾Ð´Ð¸ÑĤ": 1428,
      "Ð¸Ð½Ð½Ð¾": 1429,
      "thing": 1430,
      "Ġoverfitting": 1431,
      "Ġgoes": 1432,
      "ÑģÑĤÐ²Ð¸Ñı": 1433,
      "ĠÐ·Ð°Ð±Ñĭ": 1434,
      "Ġatmos": 1435,
      "Ġbook": 1436,
      "Ġprojects": 1437,
      "Ġ75": 1438,
      "ĠÐĴÐ°Ð¶Ð½Ð¾": 1439,
      "Ġ120": 1440,
      "Ġsome": 1441,
      "ĠÐ¿ÑĢÐ¾ÑģÑĤÑĭÐ¼Ð¸": 1442,
      "ĠÐłÐ°Ð´": 1443,
      "ĠÑģÐ»Ð¾Ð²Ð°Ð¼Ð¸": 1444,
      "aster": 1445,
      "Ġspe": 1446,
      "ĠÐ¿Ð¾Ð²ÑĤÐ¾ÑĢÑıÐµÑĤÑģÑı": 1447,
      "Ġwhile": 1448,
      "ĠÐ²Ð¸Ð´ÐµÑĤÑĮ": 1449,
      "ĠÑĢÐ°Ð·Ð±": 1450,
      "ĠÑĪÐ°Ð³Ð¸": 1451,
      "Ġpop": 1452,
      "Ġrecursion": 1453,
      "ĠÐ¸ÑģÑĤÐ¸Ð½Ð½Ð¾": 1454,
      "ĠÐ²ÑĭÑħÐ¾Ð´Ð°": 1455,
      "ĠÐ¿Ð¾ÐºÐ°": 1456,
      "Ġbuild": 1457,
      "ommend": 1458,
      "Ð»ÐµÐºÑĨÐ¸Ð¸": 1459,
      "ĠÐ²Ð¼ÐµÑģÑĤÐ¾": 1460,
      "ĠÐºÐ¾Ð»Ð»ÐµÐºÑĨÐ¸Ð¸": 1461,
      "ĠÐ´ÐµÐ¹ÑģÑĤÐ²Ð¸Ñı": 1462,
      "ĠÐ·Ð°Ð±ÑĭÑĤÑĮ": 1463,
      "Ġatmosphere": 1464,
      "Ġsomething": 1465,
      "cess": 1466,
      "day": 1467,
      "ele": 1468,
      "iv": 1469,
      "sis": 1470,
      "tu": 1471,
      "the": 1472,
      "tal": 1473,
      "Ðł": 1474,
      "ĠM": 1475,
      "ÑĢÐ³": 1476,
      "ÑĩÐµÐ¼Ñĥ": 1477,
      "ĠÐ²ÐµÑĤ": 1478,
      "ĠÐ²ÐµÑĢ": 1479,
      "ĠÐ¸ÑģÐ¿": 1480,
      "Ð²Ð°Ð»": 1481,
      "Ġsu": 1482,
      "ĠÐºÑĤÐ¾": 1483,
      "ĠÐ¾Ð³": 1484,
      "Ġmath": 1485,
      "Ð¾Ð³Ð¸ÐºÑĥ": 1486,
      "ork": 1487,
      "Ġ10": 1488,
      "ĠÐ±ÐµÐ·": 1489,
      "Ġtoday": 1490,
      "Ġtotal": 1491,
      "Ġothe": 1492,
      "alu": 1493,
      "ÑĥÑĩÐ¸Ð»": 1494,
      "ĠÐ°ÑĢÐ³": 1495,
      "Ġgoo": 1496,
      "ĠÐ¿Ð¾ÑĩÐµÐ¼Ñĥ": 1497,
      "Ġvalu": 1498,
      "Ġretu": 1499,
      "ĠÑĢÐ°ÑģÑģÐºÐ°Ð¶Ð¸": 1500,
      "Ġprocess": 1501,
      "ÐµÐ½ÑĤÐ°Ð¼Ð¸": 1502,
      "Ġdef": 1503,
      "Ġnetw": 1504,
      "ĠÐ¿Ð¾Ð»ÑĥÑĩÐ¸Ð»": 1505,
      "ĠÐ¿ÐµÑĢÐµÐ´": 1506,
      "ĠÐ»Ð¾Ð³Ð¸ÐºÑĥ": 1507,
      "ÑĥÐ¼ÐµÐ½ÑĤÐ°Ð¼Ð¸": 1508,
      "ĠÐ²Ð¾Ð´Ñĥ": 1509,
      "Ð°ÐºÐ¾Ð²ÑĭÐ²Ð°ÐµÑĤ": 1510,
      "ĠÑĥÐ¿Ð°ÐºÐ¾Ð²ÑĭÐ²Ð°ÐµÑĤ": 1511,
      "ĠÐ²ÑĭÐ·Ð²Ð°Ð»": 1512,
      "ĠÐ²ÐµÑĢÑģ": 1513,
      "ĠÐ¸ÑģÐ¿Ð¾Ð»ÑĮÐ·": 1514,
      "Ġother": 1515,
      "ĠÐ°ÑĢÐ³ÑĥÐ¼ÐµÐ½ÑĤÐ°Ð¼Ð¸": 1516,
      "Ġgood": 1517,
      "Ġreturn": 1518,
      "Ġnetwork": 1519,
      "ĠÐĵ": 1520,
      "dies": 1521,
      "elve": 1522,
      "hin": 1523,
      "hav": 1524,
      "ior": 1525,
      "oil": 1526,
      "ols": 1527,
      "udies": 1528,
      "Ġuse": 1529,
      "ÑģÑĤÑĮ": 1530,
      "Ġall": 1531,
      "ĠÐºÐ¾Ð³": 1532,
      "ĠÐ¾Ð½": 1533,
      "Ð¾Ð»ÑĥÑĩ": 1534,
      "Ġmim": 1535,
      "Ð´Ð°": 1536,
      "Ð´Ñĥ": 1537,
      "art": 1538,
      "ĠÐ¿ÑĢÐ¾ÐµÐ´": 1539,
      "Ġinde": 1540,
      "ÐµÐ·ÐµÐ½": 1541,
      "ÐµÐ·Ð´": 1542,
      "Ġgrow": 1543,
      "Ġstudies": 1544,
      "ĠÐ¿Ð¾ÐµÐ·Ð´": 1545,
      "Ġvision": 1546,
      "Ġcools": 1547,
      "ĠÐ±ÑĭÑĤÑĮ": 1548,
      "Ġdoes": 1549,
      "Ġheav": 1550,
      "ĠÐ¿Ð¾Ð»ÐµÐ·ÐµÐ½": 1551,
      "Ġintelligent": 1552,
      "Ġfix": 1553,
      "ÑĢÐ°ÑīÐ°ÐµÑĤ": 1554,
      "Ġbrew": 1555,
      "Ġmachines": 1556,
      "Ġbehav": 1557,
      "ĠÐµÐ´ÐµÑĤ": 1558,
      "Ð¾ÑĢÐ¾ÑĪ": 1559,
      "Ġappend": 1560,
      "ĠÐ¿Ð¾ÑģÐ¾Ð²ÐµÑĤÑĥÐ¹": 1561,
      "ĠÐ¿Ð¾Ð¼Ð¾Ð³Ð°ÐµÑĤ": 1562,
      "Ġprints": 1563,
      "Ġgeneration": 1564,
      "Ġtwelve": 1565,
      "Ġcondenses": 1566,
      "apor": 1567,
      "ĠÐºÐ¾Ð³Ð´Ð°": 1568,
      "Ð¾Ð»ÑĥÑĩÐ¸ÑĤÑģÑı": 1569,
      "Ġmimic": 1570,
      "ĠÐ¿ÑĢÐ¾ÐµÐ´ÐµÑĤ": 1571,
      "Ġindex": 1572,
      "Ġheavy": 1573,
      "Ġbehavior": 1574,
      "44": 1575,
      "ege": 1576,
      "ner": 1577,
      "put": 1578,
      "pace": 1579,
      "table": 1580,
      "yst": 1581,
      "ĠÐ£": 1582,
      "ĠÐ¿Ð¾Ð½": 1583,
      "inner": 1584,
      "ÑĢÐ°ÑĪ": 1585,
      "ĠÑĩÐ¸Ñģ": 1586,
      "reen": 1587,
      "Ġdinner": 1588,
      "arm": 1589,
      "Ġinput": 1590,
      "ĠÑĢÐµÑĪÐ¸": 1591,
      "Ġgreen": 1592,
      "Ġvege": 1593,
      "Ġcook": 1594,
      "Ġproblem": 1595,
      "Ġshould": 1596,
      "Ġsquared": 1597,
      "Ġmostly": 1598,
      "ĠÐ¿ÑĢÐ¾ÑĨÐµÑģÑģ": 1599,
      "ĠÐ¡Ð¿ÑĢÐ°ÑĪ": 1600,
      "ĠÐ¿Ð¾Ð¼Ð¾ÑĩÑĮ": 1601,
      "ĠÑĢÐ°ÑģÑĤÐµÐ½Ð¸Ñı": 1602,
      "tables": 1603,
      "ĠÑĩÐ¸ÑģÐµÐ»": 1604,
      "Ġvegetables": 1605,
      "ĠÐ¡Ð¿ÑĢÐ°ÑĪÐ¸Ð²Ð°Ð¹ÑĤÐµ": 1606,
      "ĠO": 1607,
      "lou": 1608,
      "lar": 1609,
      "ular": 1610,
      "ÐļÐ°Ðº": 1611,
      "ĠÑģÑĤÐ°": 1612,
      "Ð¾Ð¸Ð¼": 1613,
      "ÑĢÐµÐ±": 1614,
      "Ð½Ð°Ð²": 1615,
      "Ð½Ð¾Ð·": 1616,
      "ÑĭÐµ": 1617,
      "Ð½Ð¸Ð±": 1618,
      "Ð½Ð¸ÑĤÐµ": 1619,
      "ĠÐ¿ÑĢÐ¾Ð´": 1620,
      "ĠÐ¿ÑĢÐ¾Ð³": 1621,
      "Ġse": 1622,
      "ĠÑĤÑĢÐµÐ±": 1623,
      "Ð¾Ð²ÐµÑĢ": 1624,
      "Ð¾Ð²Ð¾Ð³Ð¾": 1625,
      "Ð¾Ð²ÑĭÐµ": 1626,
      "ĠÐ¾Ñģ": 1627,
      "ĠÑĩÑĥÐ¶": 1628,
      "ĠÑĩÐµÑĢÐµÐ·": 1629,
      "ĠÑĩÐ¸ÑĤÐ°Ð¹ÑĤÐµ": 1630,
      "ous": 1631,
      "Ð¾Ð»Ð¶": 1632,
      "Ð¾Ð»Ð½Ñı": 1633,
      "Ġche": 1634,
      "Ð¿Ð¾Ð·": 1635,
      "Ð¿Ð°ÐºÑĤ": 1636,
      "ÐµÐ»Ð¸": 1637,
      "ery": 1638,
      "ÐµÐ¼ÐµÐ½Ð½ÑĭÐµ": 1639,
      "ĠÐ±Ð°Ð·": 1640,
      "ĠÐĹÐ°ÑĤÐµÐ¼": 1641,
      "Ġever": 1642,
      "ÐµÐ¹ÑĤÐµ": 1643,
      "ĠÑĢÐ°ÑģÐ¿Ð¾Ð·": 1644,
      "ĠÑĤÐ¾ÐºÐµÐ½Ñĭ": 1645,
      "ĠÑģÐ²Ð¾Ð¸Ð¼": 1646,
      "Ð°ÑĩÐ½Ð¸ÑĤÐµ": 1647,
      "Ð·ÑĭÐºÐ¾Ð²ÑĭÐµ": 1648,
      "ĠÐ¼Ð¾Ð´ÐµÐ»Ð¸": 1649,
      "ÑĢÐ¾ÑģÐ¸ÑĤÐµ": 1650,
      "ĠÐ´ÐµÐ»Ð°Ð¹ÑĤÐµ": 1651,
      "ÑĥÐ´ÑĮ": 1652,
      "ÑĥÑİÑīÐ¸Ðµ": 1653,
      "ĠÐ¿ÐµÑĢÐµÐ¼ÐµÐ½Ð½ÑĭÐµ": 1654,
      "ĠÑĥÑģÐ»Ð¾Ð²Ð¸Ñı": 1655,
      "ÐµÑĢÐ°ÑĨÐ¸Ñı": 1656,
      "ĠÑģÐ¸Ð½ÑĤÐ°ÐºÑģÐ¸ÑģÐ°": 1657,
      "Ð¸ÑģÑĤÐµÐ½ÑĤ": 1658,
      "ĠÐ¯Ð·ÑĭÐºÐ¾Ð²ÑĭÐµ": 1659,
      "ĠÐ²ÐµÑģÐ°Ð¼": 1660,
      "ĠÐ¿ÑĢÐµÐ´ÑģÐºÐ°Ð·ÑĭÐ²Ð°ÑİÑĤ": 1661,
      "ĠÐ³ÐµÐ½ÐµÑĢÐ°ÑĨÐ¸Ñı": 1662,
      "ĠÐ¿ÑĢÐ¾ÐµÐºÑĤÑĭ": 1663,
      "Ð°ÑģÑģÐ¸ÑģÑĤÐµÐ½ÑĤ": 1664,
      "ĠÐºÐ¾ÑĤÐ¾ÑĢÑĭÐµ": 1665,
      "ĠÐ¿ÑĢÐµÐ²ÑĢÐ°ÑīÐ°Ñİ": 1666,
      "ĠÐ¡Ð¿ÑĢÐ¾ÑģÐ¸ÑĤÐµ": 1667,
      "ĠÐ¼ÑĭÑĪÐ»ÐµÐ½Ð¸Ñı": 1668,
      "Ġknow": 1669,
      "ĠÐ³ÐµÐ½ÐµÑĢÐ¸ÑĢÑĥÑİ": 1670,
      "Ġyourself": 1671,
      "ĠÐ¿ÑĢÐ¸Ð½Ð¸Ð¼Ð°Ñİ": 1672,
      "Ġpredict": 1673,
      "Ġquick": 1674,
      "ĠÐºÐ¾Ð½ÑĤÐµÐºÑģÑĤÑĥ": 1675,
      "ĠÐ¾Ð¿Ð¸Ñģ": 1676,
      "ĠÑģÐ¸ÑģÑĤÐµÐ¼Ñĭ": 1677,
      "ĠÐºÐ¾Ð¼Ð¿Ð°ÐºÑĤ": 1678,
      "ences": 1679,
      "ĠÐ²ÑĭÐ¿Ð¾Ð»Ð½Ñı": 1680,
      "Ð½Ð°Ð²Ð°Ð½Ð¸Ðµ": 1681,
      "Ð½Ð¾Ð·Ð¸ÑĢÐ¾Ð²Ð°Ð½Ð¸Ðµ": 1682,
      "Ð½Ð¸Ð±ÑĥÐ´ÑĮ": 1683,
      "ĠÐ¿ÑĢÐ¾Ð´Ð¾Ð»Ð¶": 1684,
      "ĠÐ¿ÑĢÐ¾Ð³Ð½Ð¾Ð·Ð¸ÑĢÐ¾Ð²Ð°Ð½Ð¸Ðµ": 1685,
      "ĠÑĤÑĢÐµÐ±ÑĥÑİÑīÐ¸Ðµ": 1686,
      "ĠÑĩÑĥÐ¶Ð¾Ð¹": 1687,
      "ĠÐ±Ð°Ð·Ð¾Ð²Ð¾Ð³Ð¾": 1688,
      "ĠÑĢÐ°ÑģÐ¿Ð¾Ð·Ð½Ð°Ð²Ð°Ð½Ð¸Ðµ": 1689,
      "ĠÐºÐ¾Ð¼Ð¿Ð°ÐºÑĤÐ½ÑĭÐ¹": 1690,
      "ĠÐ²ÑĭÐ¿Ð¾Ð»Ð½ÑıÑİÑĤ": 1691,
      "ĠÐ¿ÑĢÐ¾Ð´Ð¾Ð»Ð¶ÐµÐ½Ð¸Ðµ": 1692,
      "Ð¦Ð¸ÐºÐ»": 1693,
      "ĠÐ¦Ð¸ÐºÐ»": 1694,
      "ĠRead": 1695,
      "100": 1696,
      "cu": 1697,
      "light": 1698,
      "ry": 1699,
      "Ð£": 1700,
      "Ð¤ÑĥÐ½ÐºÑĨÐ¸Ñı": 1701,
      "ĠL": 1702,
      "ĠHello": 1703,
      "ŃÑĤÐ¾": 1704,
      "ĠÐļ": 1705,
      "ĠÐ¤ÑĥÐ½ÐºÑĨÐ¸Ñı": 1706,
      "Ð¾ÑĨ": 1707,
      "ÑĤÐ¸": 1708,
      "Ð»Ð°ÑģÑĤÑĮ": 1709,
      "leigh": 1710,
      "leng": 1711,
      "lecu": 1712,
      "Ð°Ð»ÐµÐµ": 1713,
      "ĠÐ½Ð°Ð¹": 1714,
      "Ġpick": 1715,
      "Ġwave": 1716,
      "Ð¸ÑĤÐ¸ÑĢ": 1717,
      "ĠÐ´Ð°Ð»ÐµÐµ": 1718,
      "ĠÐ¼Ð°ÑĪÐ¸Ð½": 1719,
      "Ġ13": 1720,
      "Ġ25": 1721,
      "ths": 1722,
      "ĠÐĹÐ´ÑĢÐ°Ð²ÑģÑĤÐ²ÑĥÐ¹ÑĤÐµ": 1723,
      "ything": 1724,
      "Ġstore": 1725,
      "Ġoff": 1726,
      "ĠÐ§ÑĤÐ¾Ð±Ñĭ": 1727,
      "ÑħÐ¾Ð´Ð¾Ð²": 1728,
      "Ġmolecu": 1729,
      "Ġconte": 1730,
      "ĠÐ¾Ð±Ð»Ð°ÑģÑĤÑĮ": 1731,
      "istan": 1732,
      "ĠÐ´ÐµÐ»Ð¸ÑĤÑģÑı": 1733,
      "ÑĥÑİÑīÐ¸Ñħ": 1734,
      "ĠÐ±Ð¾Ð»ÑĮÑĪÐ¸Ñħ": 1735,
      "ĠÐ¾Ð±ÑĥÑĩÐµÐ½Ð½ÑĭÐµ": 1736,
      "ayleigh": 1737,
      "Ġscattering": 1738,
      "ĠRayleigh": 1739,
      "ĠÑĤÐµÐºÑģÑĤÐ°Ñħ": 1740,
      "ĠÑĥÐ¼Ð½Ð¾Ð¶ÑĮÑĤÐµ": 1741,
      "ĠÐ½ÐµÐ¹ÑĢÐ¾ÑģÐµÑĤÐ¸": 1742,
      "ĠÐ¿Ð¾Ð´ÑħÐ¾Ð´Ð¾Ð²": 1743,
      "Ġslow": 1744,
      "ÐĹÐ´ÑĢÐ°Ð²ÑģÑĤÐ²ÑĥÐ¹ÑĤÐµ": 1745,
      "ÑĤÑĢÐ°Ð½ÑģÑĦÐ¾ÑĢÐ¼ÐµÑĢÑĭ": 1746,
      "ĠÐ¸Ð¼Ð¸ÑĤÐ¸ÑĢ": 1747,
      "Ġwalk": 1748,
      "Ġwriting": 1749,
      "Ð¾ÑģÑĤÐ¾Ðµ": 1750,
      "Ð¾ÑĨÐµÐ½ÑĤ": 1751,
      "lengths": 1752,
      "ĠÐ½Ð°Ð¹ÑĤÐ¸": 1753,
      "Ġwavelengths": 1754,
      "ĠÐ¼Ð°ÑĪÐ¸Ð½Ð°Ñħ": 1755,
      "Ġmolecules": 1756,
      "Ġcontext": 1757,
      "ĠÐ¸Ð¼Ð¸ÑĤÐ¸ÑĢÑĥÑİÑīÐ¸Ñħ": 1758,
      "ĠH": 1759,
      "ĠFor": 1760,
      "ĠÐĴÑĭÑĩÐ¸ÑĤÐ°ÐµÐ¼": 1761,
      "ÐĴÑĭÑĩÐ¸ÑĤÐ°ÐµÐ¼": 1762,
      "It": 1763,
      "gs": 1764,
      "ÐĿ": 1765,
      "ÑģÐ½Ð¾Ðµ": 1766,
      "ÑĢÐ¾Ð²": 1767,
      "Ð½ÐµÑĢ": 1768,
      "Ð½Ð½Ð¾": 1769,
      "ÑĭÐ»": 1770,
      "ÑĭÑĩ": 1771,
      "ĠÐ¿Ð¾Ð¿ÑĢÐ¾Ð±ÑĥÐ¹ÑĤÐµ": 1772,
      "ĠÐ¿ÑĭÐ»": 1773,
      "ÑıÑı": 1774,
      "Ð»Ð¾Ð¼": 1775,
      "Ð»Ð¸Ð²": 1776,
      "Ð»Ð¾ÑĢÐ¾": 1777,
      "Ð»Ð°ÑģÑģ": 1778,
      "ĠÑģÐ°Ð¼": 1779,
      "ĠÑģÐ°Ñħ": 1780,
      "ĠÑģÐ¸Ð½Ð¸": 1781,
      "ĠÐ²Ð·": 1782,
      "Ð²Ð°": 1783,
      "Ð²Ð¸ÑĤ": 1784,
      "ĠÐ¿ÑĢÐ¸Ð²": 1785,
      "Ġsum": 1786,
      "Ð±Ð¸ÑĤÐµ": 1787,
      "ĠÐºÑĢÐ°": 1788,
      "ĠÐºÐ»Ð°ÑģÑģ": 1789,
      "ĠÑĤÑĳ": 1790,
      "red": 1791,
      "ree": 1792,
      "Ð´ÐµÐ»": 1793,
      "ÐµÐ»Ð°Ð¼Ð¸": 1794,
      "ÐµÑĢÑĭ": 1795,
      "ÐµÑĢÐ¸Ñİ": 1796,
      "Ð¾Ð¼Ñĥ": 1797,
      "ĠÐ¼Ð°ÑĤ": 1798,
      "Ð°ÑĤÐµ": 1799,
      "ĠÑĥÐ»Ð°Ð²": 1800,
      "Ð³Ð¸Ñİ": 1801,
      "ĠÐ½Ð°ÑĥÐº": 1802,
      "ĠÐ±Ð»Ð¸": 1803,
      "ics": 1804,
      "Ġex": 1805,
      "Ð¾ÑĢÐ°Ð·": 1806,
      "Ð°ÑĢÐ°Ñħ": 1807,
      "Ð¸ÐºÐ¸": 1808,
      "ĠÐ°ÑĤÐ¼Ð¾ÑģÑĦ": 1809,
      "Ð¸Ð»Ð»Ð¾Ð¼": 1810,
      "ÑĢÑĭÐ²Ð°": 1811,
      "Ð¶Ðµ": 1812,
      "ĠÐ³Ð°Ð·": 1813,
      "ĠÑįÐ½ÐµÑĢ": 1814,
      "ĠÐ¿Ð¾ÑģÑĤÐ¾Ñı": 1815,
      "ĠÐ¿Ð¾Ñį": 1816,
      "ĠÐ²ÑĭÐ´ÐµÐ»": 1817,
      "ĠÑĦÐ°Ð½ÑĤ": 1818,
      "ĠÑĢÐ°ÑģÑģÐºÐ°Ð·": 1819,
      "ÑĦÐ¸Ð»Ð»Ð¾Ð¼": 1820,
      "ÑĭÐ²Ð°ÑİÑĤ": 1821,
      "ÑĥÑģÑĮ": 1822,
      "ĠÐ¿ÑĢÐµÐ´ÐµÐ»Ð°Ð¼Ð¸": 1823,
      "Ð°ÑģÑĤÐµÐ½Ð¸Ñı": 1824,
      "Ð°ÑģÑĤÐ¸ÐºÑĥ": 1825,
      "ÑĤÐ¾Ð¼Ñĥ": 1826,
      "ĠÑıÐ·ÑĭÐºÐ¸": 1827,
      "ĠÐ½Ð¾Ð²Ð¾Ð¼Ñĥ": 1828,
      "ĠÐŀÐ½": 1829,
      "Ġsquares": 1830,
      "Ġholds": 1831,
      "Ð¼Ð½ÑĥÑİ": 1832,
      "ĠÑģÐ²ÐµÑĤÐ°": 1833,
      "Ġbreaking": 1834,
      "ĠÐļÐ°ÐºÐ¾Ð¹": 1835,
      "Ġsteps": 1836,
      "ĠÑħÐ»Ð¾ÑĢÐ¾": 1837,
      "Ð¾ÑģÐ¼Ð¾ÑģÐ¾Ð¼": 1838,
      "ĠÐºÐ½Ð¸Ð³Ð¸": 1839,
      "ĠÐ¶Ð°Ð½ÑĢÐ°": 1840,
      "Ġthree": 1841,
      "ĠÐ²ÑĢÐµÐ¼ÐµÐ½Ð¸": 1842,
      "Ġwhy": 1843,
      "ĠÐ¼ÑĭÑĪÐ»ÐµÐ½Ð¸Ð¸": 1844,
      "ÑĤÐ¼Ð¾ÑģÑĦÐµÑĢÐ°": 1845,
      "Ġlegs": 1846,
      "ĠÐ½Ð°Ð·ÑĭÐ²Ð°ÑİÑĤ": 1847,
      "ĠÐ·Ð°ÐºÐ°ÑĤÐµ": 1848,
      "Ġequals": 1849,
      "ĠÑĥÑĩÑĥÑģÑĮ": 1850,
      "ĠÐ»ÑİÐ±Ð¸ÑĤÐµ": 1851,
      "ĠÐĳÐ¾Ð»ÑĮÑĪÐ¾Ð³Ð¾": 1852,
      "ĠÐ·Ð°Ð¿Ð°ÑģÐ°ÑİÑĤ": 1853,
      "ĠÑĢÐ°ÑģÑĪÐ¸ÑĢÑıÐµÑĤÑģÑı": 1854,
      "ÑĭÑĩÐºÐ°Ñħ": 1855,
      "ĠÐ¿ÑĭÐ»ÑĮ": 1856,
      "Ð»Ð¸Ð²Ð°ÑİÑĤ": 1857,
      "ĠÑģÐ°Ð¼Ð¾ÑĢÐ°Ð·": 1858,
      "ĠÑģÐ°ÑħÐ°ÑĢÐ°Ñħ": 1859,
      "ĠÑģÐ¸Ð½Ð¸Ð¹": 1860,
      "ĠÐ²Ð·ÑĢÑĭÐ²Ð°": 1861,
      "Ð²Ð¸ÑĤÐ¸Ñı": 1862,
      "ĠÐ¿ÑĢÐ¸Ð²ÑĭÑĩÐºÐ°Ñħ": 1863,
      "ĠÐºÑĢÐ°ÑģÐ½Ð¾Ðµ": 1864,
      "ĠÐºÐ»Ð°ÑģÑģÐ¸ÐºÐ¸": 1865,
      "ĠÑĤÑĳÐ¼Ð½ÑĥÑİ": 1866,
      "ĠÐ¼Ð°ÑĤÐµÑĢÐ¸Ñİ": 1867,
      "ĠÑĥÐ»Ð°Ð²Ð»Ð¸Ð²Ð°ÑİÑĤ": 1868,
      "ĠÐ½Ð°ÑĥÐºÑĥ": 1869,
      "ĠÐ±Ð»Ð¸Ð¶Ðµ": 1870,
      "ĠÐ°ÑĤÐ¼Ð¾ÑģÑĦÐµÑĢÑĭ": 1871,
      "ĠÑįÐ½ÐµÑĢÐ³Ð¸Ñİ": 1872,
      "ĠÐ¿Ð¾ÑģÑĤÐ¾ÑıÐ½Ð½Ð¾": 1873,
      "ĠÐ¿Ð¾ÑįÑĤÐ¾Ð¼Ñĥ": 1874,
      "ĠÐ²ÑĭÐ´ÐµÐ»ÑıÑı": 1875,
      "ĠÑĦÐ°Ð½ÑĤÐ°ÑģÑĤÐ¸ÐºÑĥ": 1876,
      "ĠÑĢÐ°ÑģÑģÐºÐ°Ð·Ð°ÑĤÑĮ": 1877,
      "ĠÑħÐ»Ð¾ÑĢÐ¾ÑĦÐ¸Ð»Ð»Ð¾Ð¼": 1878,
      "ĠÑģÐ°Ð¼Ð¾ÑĢÐ°Ð·Ð²Ð¸ÑĤÐ¸Ñı": 1879,
      "ÐĲ": 1880,
      "ĠÑĤÐ¾": 1881,
      "ĪĴ": 1882,
      "Ð¾Ñħ": 1883,
      "ÐµÑħ": 1884,
      "ÐµÐ¾Ð±": 1885,
      "ÐµÑģÑĤÐ²Ð°": 1886,
      "ÑĤÐ¾Ð½": 1887,
      "ÑĤÑĢÐ¾Ð½": 1888,
      "ÑĢÐ¾": 1889,
      "ÑĢÐ°Ð¶": 1890,
      "ÑĢÐ½ÑĭÑħ": 1891,
      "Ð½Ð¾Ð»": 1892,
      "Ð½Ð¾Ð³Ð¾": 1893,
      "Ð»Ð°": 1894,
      "Ð»Ð³": 1895,
      "Ð»Ð°Ð½": 1896,
      "Ð»ÐºÐ°": 1897,
      "ÐºÑĤÑĥÑĢÑĭ": 1898,
      "ÑĩÐ°Ð¹": 1899,
      "Ġtas": 1900,
      "Ġtenses": 1901,
      "ĠÑģÐ¾Ð½": 1902,
      "ĠÐ²Ð°Ð¼": 1903,
      "ĠÐ²ÐµÑī": 1904,
      "Ð¼Ð¾Ð²": 1905,
      "ÐµÑĤÐµÐ½": 1906,
      "ÐµÑĤÐ¾Ð¼": 1907,
      "Ð½Ð¸Ð»Ð°": 1908,
      "ĠÐ¿ÑĢÐ¸Ð¼": 1909,
      "ĠÐ¿ÑĢÐ¾Ð³Ñĥ": 1910,
      "ĠÐ¿ÑĢÐ¸Ð¼ÐµÑĢ": 1911,
      "ĠÑĤÑĢÐ¸": 1912,
      "ĠÑĤÐµÑħ": 1913,
      "ĠÑĩÐ°ÑģÑĤ": 1914,
      "ĠÐ½Ð¾": 1915,
      "ĠâĪĴ": 1916,
      "ÐµÐ½Ð°": 1917,
      "Ð´ÑĢÐ¾": 1918,
      "Ð¸ÑĤÐ¼Ð¾Ð²": 1919,
      "Ð¾Ð³Ð¸Ð¹": 1920,
      "ÑİÑģ": 1921,
      "Ð¾Ð¼Ð½Ð¸Ð»Ð°": 1922,
      "ĠÐ´Ð°ÑĤ": 1923,
      "Ð°ÑģÐµÑĤÐ¾Ð¼": 1924,
      "Ð½ÑĭÐ¼": 1925,
      "Ð°Ð¼ÐµÑĤÐµÐ½": 1926,
      "ĠÐ¼Ð¸ÑĢ": 1927,
      "ĠÐ¼ÐµÐ»ÑĮ": 1928,
      "ĠÐ·Ð°Ð½": 1929,
      "ĠÐ·Ð°Ð¼ÐµÑĤÐµÐ½": 1930,
      "Ð°ÑĤÐ°": 1931,
      "Ð°ÑĤÐµÐ»ÑĮ": 1932,
      "ars": 1933,
      "Ð½ÐµÐ½Ð¸Ñı": 1934,
      "ÑĪÐ°Ñı": 1935,
      "ĠÐ¿ÑĢÐ¾Ð¸Ñģ": 1936,
      "ĠÐ¿ÑĢÐ¾ÑĤÐ¾Ð½": 1937,
      "Ð¾ÑĢÐ¸ÑĤÐ¼Ð¾Ð²": 1938,
      "ÑīÐ¸Ðµ": 1939,
      "Ð°Ð·Ð°": 1940,
      "Ð°Ð·Ð½ÑĭÐ¹": 1941,
      "ÑģÑıÑĨ": 1942,
      "ÑĥÑĩÐµÐ½Ð¸Ðµ": 1943,
      "ÑĥÑĩÐ½ÑĭÑħ": 1944,
      "ĠÑĢÐ°Ð²": 1945,
      "ĠÑĢÑĥÑĩÐ½ÑĭÑħ": 1946,
      "ĠÐ°Ð»Ð³": 1947,
      "Ð°ÑİÑīÐ¸Ðµ": 1948,
      "ÑĨÐ¸ÐµÐ¹": 1949,
      "Ð½Ð¾Ð¾Ð±": 1950,
      "ĠÐ§ÐµÑĢÐµÐ·": 1951,
      "ĠÑįÐ»ÐµÐºÑĤ": 1952,
      "ĠÑıÐ´ÑĢÐ¾": 1953,
      "ÐµÐ¹ÑĢÐ¾ÑģÐµÑĤÐ¸": 1954,
      "Ð¸ÐµÐ½Ð¸Ðµ": 1955,
      "Ġcomm": 1956,
      "vel": 1957,
      "ĠÑģÐ²Ð¾Ð¹": 1958,
      "ÐµÑĩÐ¸ÑĤÑģÑı": 1959,
      "Ġconsist": 1960,
      "ÑĢÑĥÐºÑĤÑĥÑĢÑĭ": 1961,
      "ĠÐ·Ð°Ð½Ð¸Ð¼": 1962,
      "ĠÐ´ÐµÐ»Ð¸Ð¼": 1963,
      "ĠÐºÐ¸Ð»Ð¾Ð³ÑĢÐ°Ð¼Ð¼Ñĥ": 1964,
      "ĠÐ±Ð¾Ð»ÑĮÑĪÐ¸Ð¼": 1965,
      "ĠÐ±Ð¾Ð»ÑĮÑĪÐ¾Ð¹": 1966,
      "ĠÐĴÐ°ÑĤÐ°": 1967,
      "ĠÐ¾Ð±ÑĥÑĩÐ°ÑİÑīÐ¸Ðµ": 1968,
      "ently": 1969,
      "ĠÐ½Ð¾Ð²ÑĭÑħ": 1970,
      "ĠÐŀÑģÑĤÐ°Ð»Ð¾ÑģÑĮ": 1971,
      "ĠÐ¿Ð»Ð¾Ñħ": 1972,
      "ĠÐ¿Ð»ÑİÑģ": 1973,
      "ĠÐ¿ÐµÑĢÐµÐ¾Ð±": 1974,
      "ĠÐłÐ°Ð·Ð½ÑĭÐ¹": 1975,
      "ÐµÑĢÐ°Ñħ": 1976,
      "ÑıÑĤÐ¸Ð¹": 1977,
      "ĠÐ·Ð°Ð´Ð°ÑĩÐ°Ð¼Ð¸": 1978,
      "ĠÐ¼Ð°Ð»ÐµÐ½ÑĮÐºÐ°Ñı": 1979,
      "ĠÐ²ÐµÑģÐ¸ÑĤ": 1980,
      "ĠÐ·Ð°Ð¿Ð¾Ð¼Ð½Ð¸Ð»Ð°": 1981,
      "ĠÐĿÐµÐ¹ÑĢÐ¾ÑģÐµÑĤÐ¸": 1982,
      "ĠÑıÐ±Ð»Ð¾ÐºÐ°": 1983,
      "ĠÐ½ÐµÐ¹ÑĤÑĢÐ¾Ð½": 1984,
      "ĠÐµÐ´Ð¸Ð½Ð¸": 1985,
      "ÑĢÐ¸Ð·Ð°": 1986,
      "ĠÐ²ÑģÐµÐ³Ð¾": 1987,
      "ĠÐ²ÑĢÐµÐ¼ÐµÐ½Ð°": 1988,
      "ĠÐ´ÑĢÑĥÐ³Ð¾Ðµ": 1989,
      "ÑĢÐ¾Ð½Ñĭ": 1990,
      "ĠÐ²Ð¸Ð´Ð¾Ð²": 1991,
      "ĠÐ¼ÐµÑģÑĤÐ°": 1992,
      "ĠÐ¼ÐµÑģÑıÑĨ": 1993,
      "ĠÑĢÐ°Ð·Ð½Ð¾Ð¾Ð±": 1994,
      "Ð°ÐºÐ¾Ð²Ð¾": 1995,
      "ĠÑĥÐ¿ÑĢÐ°Ð¶": 1996,
      "ĠÐ¾Ð±ÑĬÑĳÐ¼": 1997,
      "Ð°ÑĪÐ¸Ð½Ð½Ð¾Ðµ": 1998,
      "Ð»Ð°Ð²Ð½Ð¾Ðµ": 1999
    },
    "merges": [
      [
        "Ġ",
        "Ð"
      ],
      [
        "Ð",
        "¾"
      ],
      [
        "Ð",
        "°"
      ],
      [
        "Ð",
        "µ"
      ],
      [
        "Ñ",
        "Ĥ"
      ],
      [
        "Ñ",
        "ģ"
      ],
      [
        "Ð",
        "¸"
      ],
      [
        "Ð¾",
        "Ð"
      ],
      [
        "Ñ",
        "Ģ"
      ],
      [
        "Ð",
        "½"
      ],
      [
        "č",
        "Ċ"
      ],
      [
        "Ð°",
        "Ð"
      ],
      [
        "Ñ",
        "ĥ"
      ],
      [
        "Ðµ",
        "Ð"
      ],
      [
        "Ñ",
        "ĭ"
      ],
      [
        "ĠÐ",
        "¿"
      ],
      [
        "Ñ",
        "ı"
      ],
      [
        "Ð",
        "»"
      ],
      [
        "Ñģ",
        "ÑĤ"
      ],
      [
        "Ð",
        "º"
      ],
      [
        "Ñ",
        "ĩ"
      ],
      [
        "Ġ",
        "t"
      ],
      [
        "Ñ",
        "Į"
      ],
      [
        "Ġ",
        "a"
      ],
      [
        "i",
        "n"
      ],
      [
        "Ð",
        "¹"
      ],
      [
        "Ġ",
        "Ñģ"
      ],
      [
        "ĠÐ",
        "²"
      ],
      [
        "ĠÐ",
        "¸"
      ],
      [
        "Ð",
        "¼"
      ],
      [
        "Ðµ",
        "ÑĤ"
      ],
      [
        "ÑĤ",
        "Ð¾"
      ],
      [
        "Ð½",
        "Ð¸"
      ],
      [
        "Ð",
        "²"
      ],
      [
        "l",
        "e"
      ],
      [
        "ĠÐ¿",
        "ÑĢ"
      ],
      [
        "Ġ",
        "s"
      ],
      [
        "Ð",
        "±"
      ],
      [
        "ĠÐ",
        "º"
      ],
      [
        "Ġ",
        "ÑĤ"
      ],
      [
        "Ð¾Ð",
        "²"
      ],
      [
        "Ð°Ð",
        "»"
      ],
      [
        "a",
        "t"
      ],
      [
        "h",
        "e"
      ],
      [
        "ĠÐ",
        "¾"
      ],
      [
        "A",
        "N"
      ],
      [
        "A",
        "S"
      ],
      [
        "E",
        "R"
      ],
      [
        "I",
        "S"
      ],
      [
        "S",
        "ER"
      ],
      [
        "S",
        "IS"
      ],
      [
        "T",
        "AN"
      ],
      [
        "U",
        "SER"
      ],
      [
        "AS",
        "SIS"
      ],
      [
        "TAN",
        "T"
      ],
      [
        "ASSIS",
        "TANT"
      ],
      [
        "Ð°Ð",
        "º"
      ],
      [
        "ÑĢ",
        "Ð°"
      ],
      [
        "Ġ",
        "Ñĩ"
      ],
      [
        "r",
        "e"
      ],
      [
        "o",
        "n"
      ],
      [
        "E",
        "O"
      ],
      [
        "o",
        "u"
      ],
      [
        "ĠÐ",
        "½"
      ],
      [
        "EO",
        "S"
      ],
      [
        "Ð¾Ð",
        "´"
      ],
      [
        "Ġ",
        "p"
      ],
      [
        "i",
        "s"
      ],
      [
        "a",
        "n"
      ],
      [
        "Ð¾Ð",
        "¶"
      ],
      [
        "ÑģÑĤ",
        "Ð°"
      ],
      [
        "Ġ",
        "â"
      ],
      [
        "Ñĥ",
        "Ð¹"
      ],
      [
        "Ðµ",
        "Ð½"
      ],
      [
        "Ð¾Ð",
        "»"
      ],
      [
        "Ģ",
        "Ķ"
      ],
      [
        "Ġâ",
        "ĢĶ"
      ],
      [
        "Ñ",
        "ħ"
      ],
      [
        "Ġ",
        "w"
      ],
      [
        "Ġ",
        "m"
      ],
      [
        "Ð",
        "´"
      ],
      [
        "Ð¸",
        "ÑĤ"
      ],
      [
        "Ð¾Ð",
        "³"
      ],
      [
        "l",
        "l"
      ],
      [
        "Ð¾",
        "Ðµ"
      ],
      [
        "s",
        "e"
      ],
      [
        "Ġ",
        "c"
      ],
      [
        "ĠÐ",
        "Ł"
      ],
      [
        "o",
        "r"
      ],
      [
        "e",
        "n"
      ],
      [
        "Ð",
        "¿"
      ],
      [
        "Ð°Ð»",
        "ÑĥÐ¹"
      ],
      [
        "Ð¾Ð¶",
        "Ð°Ð»ÑĥÐ¹"
      ],
      [
        "Ð¾Ð¶Ð°Ð»ÑĥÐ¹",
        "ÑģÑĤÐ°"
      ],
      [
        "Ġt",
        "he"
      ],
      [
        "ÐµÐ",
        "»"
      ],
      [
        "in",
        "g"
      ],
      [
        "e",
        "r"
      ],
      [
        "Ñ",
        "İ"
      ],
      [
        "Ðµ",
        "ÑĢ"
      ],
      [
        "Ġ",
        "b"
      ],
      [
        "Ġa",
        "n"
      ],
      [
        "i",
        "t"
      ],
      [
        "Ð°Ð",
        "¶"
      ],
      [
        "Ġ",
        "is"
      ],
      [
        "Ð¾Ð",
        "¼"
      ],
      [
        "Ġ",
        "Ñ"
      ],
      [
        "ĠÐ",
        "´"
      ],
      [
        "le",
        "a"
      ],
      [
        "Ð°",
        "Ñģ"
      ],
      [
        "Ð½",
        "Ñĭ"
      ],
      [
        "Ð°Ð",
        "¼"
      ],
      [
        "e",
        "s"
      ],
      [
        "ĠÐ",
        "¼"
      ],
      [
        "Ð",
        "·"
      ],
      [
        "ĠÐ",
        "·"
      ],
      [
        "Ð°",
        "ÑĤ"
      ],
      [
        "Ġ",
        "f"
      ],
      [
        "Ġ",
        "d"
      ],
      [
        "Ġan",
        "d"
      ],
      [
        "h",
        "at"
      ],
      [
        "Ñģ",
        "Ðº"
      ],
      [
        "ĠÑĩ",
        "ÑĤÐ¾"
      ],
      [
        "Ġ",
        "1"
      ],
      [
        "Ġ",
        "2"
      ],
      [
        "o",
        "w"
      ],
      [
        "Ð¾",
        "Ñģ"
      ],
      [
        "ĠÑĤ",
        "Ð°Ðº"
      ],
      [
        "Ġ",
        "Ñĥ"
      ],
      [
        "Ð°Ð¶",
        "Ð¸"
      ],
      [
        "ÐµÐ",
        "¼"
      ],
      [
        "ĠÑĤÐ°Ðº",
        "Ð¾Ðµ"
      ],
      [
        "Ð",
        "³"
      ],
      [
        "Ġ",
        "h"
      ],
      [
        "ÐµÐ",
        "º"
      ],
      [
        "ĠÐ½",
        "Ð°"
      ],
      [
        "Ñ",
        "Ĩ"
      ],
      [
        "a",
        "r"
      ],
      [
        "Ð½",
        "Ðµ"
      ],
      [
        "Ñ",
        "Ī"
      ],
      [
        "ĠÐ¿ÑĢ",
        "Ð¾"
      ],
      [
        "ĠÐ",
        "±"
      ],
      [
        "Ð±",
        "Ñ"
      ],
      [
        "Ð¸",
        "Ð½"
      ],
      [
        "lea",
        "se"
      ],
      [
        "i",
        "c"
      ],
      [
        "a",
        "c"
      ],
      [
        "y",
        "ou"
      ],
      [
        "Ġ",
        "you"
      ],
      [
        "e",
        "ll"
      ],
      [
        "ĠÐŁ",
        "Ð¾Ð¶Ð°Ð»ÑĥÐ¹ÑģÑĤÐ°"
      ],
      [
        "Ġt",
        "o"
      ],
      [
        "t",
        "h"
      ],
      [
        "i",
        "on"
      ],
      [
        "l",
        "d"
      ],
      [
        "Ġ",
        "in"
      ],
      [
        "ĠÐ",
        "Ĺ"
      ],
      [
        "Ð±Ñ",
        "Ĭ"
      ],
      [
        "Ġ",
        "o"
      ],
      [
        "Ġ",
        "="
      ],
      [
        "Ð¾Ð»",
        "ÑĮ"
      ],
      [
        "Ġ",
        "e"
      ],
      [
        "Ġ",
        "3"
      ],
      [
        "Ð½Ð¸",
        "Ðµ"
      ],
      [
        "a",
        "l"
      ],
      [
        "Ġ",
        "l"
      ],
      [
        "Ð¸",
        "Ñģ"
      ],
      [
        "t",
        "s"
      ],
      [
        "ĠÑģ",
        "Ð¿"
      ],
      [
        "Ð½Ðµ",
        "Ðµ"
      ],
      [
        "Ð¾",
        "ÑĢ"
      ],
      [
        "Ð",
        "Ł"
      ],
      [
        "Ñı",
        "Ñģ"
      ],
      [
        "Ð±ÑĬ",
        "ÑıÑģ"
      ],
      [
        "Ð¾Ð",
        "º"
      ],
      [
        "Ð°",
        "ÑĢÐ°"
      ],
      [
        "ÐµÐ",
        "´"
      ],
      [
        "Ñ",
        "ī"
      ],
      [
        "r",
        "o"
      ],
      [
        "Ð¸",
        "Ðº"
      ],
      [
        "Ð¸",
        "Ð±"
      ],
      [
        "Ð°Ð",
        "·"
      ],
      [
        "Ð¸",
        "Ð²"
      ],
      [
        "Ð±ÑĬÑıÑģ",
        "Ð½Ð¸"
      ],
      [
        "Ġ",
        "P"
      ],
      [
        "ÑĤ",
        "Ðµ"
      ],
      [
        "Ñģ",
        "Ñı"
      ],
      [
        "Ġm",
        "e"
      ],
      [
        "Ð°Ñģ",
        "Ð¸Ð±"
      ],
      [
        "ĠÐĹ",
        "Ð°ÑĢÐ°"
      ],
      [
        "ĠÑģÐ¿",
        "Ð°ÑģÐ¸Ð±"
      ],
      [
        "ĠÐĹÐ°ÑĢÐ°",
        "Ð½ÐµÐµ"
      ],
      [
        "ĠÑģÐ¿Ð°ÑģÐ¸Ð±",
        "Ð¾"
      ],
      [
        "Ð°",
        "ÐµÑĤ"
      ],
      [
        "Ð°",
        "Ð½"
      ],
      [
        "Ġ",
        "T"
      ],
      [
        "ÐµÐ",
        "·"
      ],
      [
        "Ñĥ",
        "Ñĩ"
      ],
      [
        "Ð»",
        "Ð¸"
      ],
      [
        "Ġ",
        "ÑĢ"
      ],
      [
        "¡",
        "Ðº"
      ],
      [
        "k",
        "s"
      ],
      [
        "Ñ",
        "ĳ"
      ],
      [
        "ĠÐ",
        "°"
      ],
      [
        "Ġ",
        "g"
      ],
      [
        "Ð¾Ð³",
        "ÑĢ"
      ],
      [
        "Ð¸",
        "Ð»"
      ],
      [
        "Ð½Ñĭ",
        "Ð¹"
      ],
      [
        "Ð°",
        "Ñİ"
      ],
      [
        "ÑĨ",
        "Ð¸"
      ],
      [
        "ÑģÐº",
        "Ð°Ð¶Ð¸"
      ],
      [
        "Ð°Ð",
        "²"
      ],
      [
        "y",
        "th"
      ],
      [
        "Ġ",
        "I"
      ],
      [
        "ou",
        "ld"
      ],
      [
        "r",
        "a"
      ],
      [
        "i",
        "g"
      ],
      [
        "h",
        "an"
      ],
      [
        "Ð°Ð¼",
        "Ð¼"
      ],
      [
        "ÑĢ",
        "Ñĭ"
      ],
      [
        "Ð",
        "¶"
      ],
      [
        "Ðµ",
        "Ñģ"
      ],
      [
        "Ð¸",
        "ÑĢ"
      ],
      [
        "ŀ",
        "Ð±ÑĬÑıÑģÐ½Ð¸"
      ],
      [
        "ĠÐ",
        "³"
      ],
      [
        "Ġs",
        "t"
      ],
      [
        "Ġo",
        "f"
      ],
      [
        "Ð½",
        "Ð¾"
      ],
      [
        "Ð°ÑĤ",
        "ÑĮ"
      ],
      [
        "ĠÐ",
        "§"
      ],
      [
        "Ð°Ð",
        "¹"
      ],
      [
        "Ð¸ÑĤ",
        "ÑĮ"
      ],
      [
        "Ð¾Ð³ÑĢ",
        "Ð°Ð¼Ð¼"
      ],
      [
        "Ð¾",
        "ÑĤ"
      ],
      [
        "ÑģÑĤ",
        "Ð²"
      ],
      [
        "s",
        "t"
      ],
      [
        "ĠÑ",
        "į"
      ],
      [
        "Ð°Ð¼",
        "Ð¸"
      ],
      [
        "W",
        "hat"
      ],
      [
        "ĠÐ",
        "µ"
      ],
      [
        "g",
        "e"
      ],
      [
        "Ġ",
        "n"
      ],
      [
        "ĠÐ¾",
        "ÑĤ"
      ],
      [
        "Ð°",
        "Ñı"
      ],
      [
        "Ġ",
        "ÑĢÐ°"
      ],
      [
        "ÐµÐ",
        "±"
      ],
      [
        "ĠÐ¿",
        "Ð¾"
      ],
      [
        "Ġt",
        "ell"
      ],
      [
        "Ġ",
        "v"
      ],
      [
        "Ġ",
        "5"
      ],
      [
        "Ġ",
        "Ñı"
      ],
      [
        "Ġ",
        "re"
      ],
      [
        "Ð¾Ð´",
        "ÑģÐºÐ°Ð¶Ð¸"
      ],
      [
        "ĠT",
        "han"
      ],
      [
        "ĠThan",
        "ks"
      ],
      [
        "ÐµÐ",
        "¹"
      ],
      [
        "t",
        "ion"
      ],
      [
        "u",
        "a"
      ],
      [
        "C",
        "ould"
      ],
      [
        "Ġw",
        "hat"
      ],
      [
        "Ð¸",
        "Ðµ"
      ],
      [
        "Ð¾Ð",
        "½"
      ],
      [
        "ĠÐ²",
        "Ñĭ"
      ],
      [
        "Ġp",
        "lease"
      ],
      [
        "Ġc",
        "o"
      ],
      [
        "ÐµÐº",
        "ÑĤ"
      ],
      [
        "¡Ðº",
        "Ð°Ð¶Ð¸"
      ],
      [
        "ĠP",
        "yth"
      ],
      [
        "ĠÑ",
        "Ħ"
      ],
      [
        "ĠÐ¿",
        "Ð¾Ð¶Ð°Ð»ÑĥÐ¹ÑģÑĤÐ°"
      ],
      [
        "a",
        "ll"
      ],
      [
        "c",
        "e"
      ],
      [
        "Ġc",
        "an"
      ],
      [
        "ĠÑģ",
        "Ð»"
      ],
      [
        "ĠÐ¸",
        "Ð½"
      ],
      [
        "Ð½Ð¸",
        "Ñı"
      ],
      [
        "Ñĥ",
        "Ñİ"
      ],
      [
        "Ð¾Ð",
        "±"
      ],
      [
        "ĠÑĢÐ°",
        "Ñģ"
      ],
      [
        "Ð¸Ñģ",
        "Ð»"
      ],
      [
        "ĠÐ¸",
        "Ð·"
      ],
      [
        "Ġ",
        "E"
      ],
      [
        "Ð¸",
        "Ð¼"
      ],
      [
        "ĠÐ¿ÑĢÐ¾",
        "ÑģÑĤ"
      ],
      [
        "d",
        "e"
      ],
      [
        "Ñħ",
        "Ð¾Ð´"
      ],
      [
        "i",
        "m"
      ],
      [
        "r",
        "n"
      ],
      [
        "Ġ",
        "4"
      ],
      [
        "Ð°Ñİ",
        "ÑĤ"
      ],
      [
        "Ð¾",
        "ÑĤÐ¾"
      ],
      [
        "ĠÐ·",
        "Ð°Ð"
      ],
      [
        "0",
        "0"
      ],
      [
        "ÐµÐ½",
        "ÑĮ"
      ],
      [
        "Ġw",
        "it"
      ],
      [
        "Ġwit",
        "h"
      ],
      [
        "a",
        "b"
      ],
      [
        "Ñı",
        "ÐµÑĤ"
      ],
      [
        "Ð¾Ð»ÑĮ",
        "Ðº"
      ],
      [
        "Ġ",
        "lea"
      ],
      [
        "ĠÐ¸Ð½",
        "ÑĤ"
      ],
      [
        "ĠPyth",
        "on"
      ],
      [
        "Ġm",
        "o"
      ],
      [
        "Ġf",
        "or"
      ],
      [
        "Ñ",
        "Ħ"
      ],
      [
        "v",
        "e"
      ],
      [
        "Ġ",
        "k"
      ],
      [
        "Ð¾Ð»ÑĮ",
        "ÑĪ"
      ],
      [
        "H",
        "ow"
      ],
      [
        "Ð¾Ð",
        "¹"
      ],
      [
        "ĠÑį",
        "ÑĤÐ¾"
      ],
      [
        "Ð¸",
        "Ð¹"
      ],
      [
        "Ñĥ",
        "Ð½"
      ],
      [
        "Ðº",
        "ÑĨÐ¸"
      ],
      [
        "ÐµÐ»",
        "ÑĮ"
      ],
      [
        "Ð¸Ð²",
        "ÐµÑĤ"
      ],
      [
        "x",
        "p"
      ],
      [
        "Ġa",
        "t"
      ],
      [
        "ac",
        "h"
      ],
      [
        "Ð¾Ð»ÑĮÐº",
        "Ð¾"
      ],
      [
        "ĠÑĤ",
        "Ð¾Ðº"
      ],
      [
        "ĠÑĤÐ¾Ðº",
        "ÐµÐ½"
      ],
      [
        "Ð¾Ð³",
        "Ñĥ"
      ],
      [
        "Ġb",
        "o"
      ],
      [
        "ĠÑģ",
        "Ð²"
      ],
      [
        "Ġlea",
        "rn"
      ],
      [
        "Ġ",
        "it"
      ],
      [
        "Ð°",
        "Ñĩ"
      ],
      [
        "ÑĥÐ½",
        "ÐºÑĨÐ¸"
      ],
      [
        "t",
        "er"
      ],
      [
        "Ġp",
        "ro"
      ],
      [
        "Ð¾Ð",
        "·"
      ],
      [
        "Ġs",
        "c"
      ],
      [
        "Ð¾Ð²",
        "Ð°"
      ],
      [
        "Ġ",
        "What"
      ],
      [
        "e",
        "c"
      ],
      [
        "Ġ",
        "A"
      ],
      [
        "Ġin",
        "t"
      ],
      [
        "ĠÐº",
        "Ð°Ðº"
      ],
      [
        "Ð¾Ð³",
        "Ð¾"
      ],
      [
        "Ñĭ",
        "Ð²"
      ],
      [
        "Ð½Ñĭ",
        "Ðµ"
      ],
      [
        "Ñĥ",
        "Ñģ"
      ],
      [
        "Ñĭ",
        "Ðº"
      ],
      [
        "Ð·",
        "ÑĭÐº"
      ],
      [
        "Ðµ",
        "Ñĩ"
      ],
      [
        "Ġt",
        "e"
      ],
      [
        "Ġc",
        "on"
      ],
      [
        "ig",
        "h"
      ],
      [
        "ÐµÐ½",
        "ÑĤ"
      ],
      [
        "Ġh",
        "ow"
      ],
      [
        "Ð¸Ðº",
        "Ð»"
      ],
      [
        "e",
        "p"
      ],
      [
        "Ðµ",
        "Ð½Ð¸Ñı"
      ],
      [
        "ÑĤ",
        "ÑĮ"
      ],
      [
        "ĠÑĩ",
        "Ð¸ÑģÐ»"
      ],
      [
        "en",
        "ce"
      ],
      [
        "ÑĢ",
        "Ñĥ"
      ],
      [
        "Ð»",
        "ÐµÐºÑĤ"
      ],
      [
        "ĠÐ¿ÑĢ",
        "ÐµÐ´"
      ],
      [
        "a",
        "in"
      ],
      [
        "ĠÐº",
        "Ð¸Ð»"
      ],
      [
        "ĠÐ¾",
        "Ð±"
      ],
      [
        "is",
        "t"
      ],
      [
        "Ġ",
        "on"
      ],
      [
        "an",
        "g"
      ],
      [
        "ĠÐ·",
        "Ð°"
      ],
      [
        "Ð¸Ð½",
        "ÑĤ"
      ],
      [
        "ĠÐ",
        "¶"
      ],
      [
        "ÐµÐ",
        "³"
      ],
      [
        "Ġd",
        "e"
      ],
      [
        "ab",
        "le"
      ],
      [
        "e",
        "d"
      ],
      [
        "ÑĤÐ¾",
        "ÑĢ"
      ],
      [
        "ĠÐ¼",
        "Ð¾Ð´"
      ],
      [
        "ÑĢ",
        "Ð¾Ñģ"
      ],
      [
        "ÐµÐ",
        "²"
      ],
      [
        "ĠÐ´",
        "ÐµÐ»"
      ],
      [
        "ĠÐŁ",
        "ÑĢ"
      ],
      [
        "p",
        "le"
      ],
      [
        "Ð°",
        "ÑģÑĤ"
      ],
      [
        "d",
        "s"
      ],
      [
        "Ð",
        "ŀÐ±ÑĬÑıÑģÐ½Ð¸"
      ],
      [
        "ĠÐ",
        "ŀÐ±ÑĬÑıÑģÐ½Ð¸"
      ],
      [
        "ĠÐº",
        "Ð¾ÑĤÐ¾"
      ],
      [
        "ÑĢÑĭ",
        "Ð¹"
      ],
      [
        "Ð°Ð¹",
        "ÑĤÐµ"
      ],
      [
        "ĠÐºÐ¸Ð»",
        "Ð¾Ð³ÑĢÐ°Ð¼Ð¼"
      ],
      [
        "ÑĢ",
        "Ð°Ð²"
      ],
      [
        "Ñĥ",
        "Ð´"
      ],
      [
        "Ġe",
        "xp"
      ],
      [
        "Ġn",
        "e"
      ],
      [
        "6",
        "0"
      ],
      [
        "s",
        "s"
      ],
      [
        "Ñĥ",
        "Ð»"
      ],
      [
        "ĠÐ§",
        "ÑĤÐ¾"
      ],
      [
        "m",
        "m"
      ],
      [
        "Ã",
        "Ĺ"
      ],
      [
        "Ðµ",
        "Ð½Ð¸Ðµ"
      ],
      [
        "Ð½Ñĭ",
        "Ñħ"
      ],
      [
        "ua",
        "ge"
      ],
      [
        "ÑĥÑİ",
        "Ñī"
      ],
      [
        "ang",
        "uage"
      ],
      [
        "Ġ",
        "7"
      ],
      [
        "l",
        "u"
      ],
      [
        "ĠÐ¿ÑĢ",
        "Ð¸"
      ],
      [
        "ĠÐ",
        "ĺ"
      ],
      [
        "x",
        "t"
      ],
      [
        "Ð´",
        "Ñĭ"
      ],
      [
        "ÐµÐ»",
        "Ð»ÐµÐºÑĤ"
      ],
      [
        "ĠÐ±",
        "Ñĭ"
      ],
      [
        "ĠÐ¸Ð½ÑĤ",
        "ÐµÐ»Ð»ÐµÐºÑĤ"
      ],
      [
        "i",
        "al"
      ],
      [
        "l",
        "ain"
      ],
      [
        "u",
        "n"
      ],
      [
        "Ġ",
        "How"
      ],
      [
        "Ð¼",
        "Ð¾Ñģ"
      ],
      [
        "Ð¸ÑĢ",
        "Ð¾Ð²Ð°"
      ],
      [
        "o",
        "re"
      ],
      [
        "Ġ",
        "or"
      ],
      [
        "ĠÐº",
        "Ð¾Ð´"
      ],
      [
        "ĠÐ±",
        "Ð¾Ð»ÑĮÑĪ"
      ],
      [
        "ĠÐ",
        "Ĵ"
      ],
      [
        "ÑĤ",
        "Ð¾Ð¼"
      ],
      [
        "Ð½",
        "Ð¾Ðµ"
      ],
      [
        "Ġd",
        "o"
      ],
      [
        "ÑģÑĤÐ²",
        "ÐµÐ½"
      ],
      [
        "ĠÐ¾Ð±",
        "ÑĥÑĩ"
      ],
      [
        "ĠÐŁ",
        "Ð¾Ð´ÑģÐºÐ°Ð¶Ð¸"
      ],
      [
        "ÐŁ",
        "Ð¾Ð´ÑģÐºÐ°Ð¶Ð¸"
      ],
      [
        "ÑģÑĤ",
        "Ð¾"
      ],
      [
        "ĠÑģ",
        "Ð¾"
      ],
      [
        "Ġ1",
        "5"
      ],
      [
        "ĠÐ¿ÑĢ",
        "Ð¾Ð³ÑĢÐ°Ð¼Ð¼"
      ],
      [
        "en",
        "t"
      ],
      [
        "ĠÑ",
        "Ĩ"
      ],
      [
        "ĠÑı",
        "Ð·ÑĭÐº"
      ],
      [
        "Ġ",
        "he"
      ],
      [
        "Ġ",
        "Could"
      ],
      [
        "Ġs",
        "h"
      ],
      [
        "P",
        "lease"
      ],
      [
        "u",
        "r"
      ],
      [
        "ĠÐ¿",
        "Ð¾Ð»"
      ],
      [
        "ĠÑĤ",
        "ÐµÐº"
      ],
      [
        "ÑĢÐ°",
        "Ð½"
      ],
      [
        "ĠÐ½",
        "Ð¾Ð²"
      ],
      [
        "Ġw",
        "or"
      ],
      [
        "ÐŁ",
        "Ð¾Ð¶Ð°Ð»ÑĥÐ¹ÑģÑĤÐ°"
      ],
      [
        "ĠP",
        "lease"
      ],
      [
        "ĠÑĦ",
        "ÑĥÐ½ÐºÑĨÐ¸"
      ],
      [
        "ÑĢÑĥ",
        "Ð³"
      ],
      [
        "ĠÐ",
        "ŀ"
      ],
      [
        "q",
        "u"
      ],
      [
        "r",
        "ac"
      ],
      [
        "Ð",
        "¡ÐºÐ°Ð¶Ð¸"
      ],
      [
        "ĠÐ",
        "¡ÐºÐ°Ð¶Ð¸"
      ],
      [
        "Ð¸ÑĤ",
        "Ðµ"
      ],
      [
        "Ġ",
        "ÃĹ"
      ],
      [
        "u",
        "m"
      ],
      [
        "ļ",
        "Ð°Ðº"
      ],
      [
        "ĠÐ¼Ð¾Ð´",
        "ÐµÐ»ÑĮ"
      ],
      [
        "Ñģ",
        "Ð»"
      ],
      [
        "Ð¸",
        "Ñı"
      ],
      [
        "ou",
        "t"
      ],
      [
        "Ġl",
        "anguage"
      ],
      [
        "ĠÐ",
        "Ĳ"
      ],
      [
        "v",
        "er"
      ],
      [
        "q",
        "ua"
      ],
      [
        "Ñĥ",
        "ÑĤ"
      ],
      [
        "Ġs",
        "qua"
      ],
      [
        "ell",
        "ig"
      ],
      [
        "all",
        "s"
      ],
      [
        "Ġint",
        "ellig"
      ],
      [
        "Ġsqua",
        "re"
      ],
      [
        "Ġ1",
        "2"
      ],
      [
        "ĠÐ¸",
        "Ð»Ð¸"
      ],
      [
        "Ġbo",
        "x"
      ],
      [
        "ĠÑĩÐ¸ÑģÐ»",
        "Ð¾"
      ],
      [
        "Ġ3",
        "0"
      ],
      [
        "d",
        "ing"
      ],
      [
        "Ð¾Ð¼",
        "Ð¾Ð³"
      ],
      [
        "ĠÐ´",
        "Ð°Ð½"
      ],
      [
        "Ð¸ÑĢÐ¾Ð²Ð°",
        "Ð½Ð¸Ðµ"
      ],
      [
        "Ð¾Ð",
        "¿"
      ],
      [
        "ĠÐ¿",
        "Ð¾Ð²"
      ],
      [
        "at",
        "er"
      ],
      [
        "at",
        "ter"
      ],
      [
        "Ġ2",
        "00"
      ],
      [
        "ĠÐ¿Ð¾Ð²",
        "ÑĤÐ¾ÑĢ"
      ],
      [
        "u",
        "t"
      ],
      [
        "Ġ",
        "8"
      ],
      [
        "ĠÐ¿",
        "Ð»"
      ],
      [
        "Ġs",
        "o"
      ],
      [
        "ĠÐ½",
        "ÐµÐ±"
      ],
      [
        "ÑģÐº",
        "ÑĥÑģ"
      ],
      [
        "ra",
        "in"
      ],
      [
        "ÑģÑĤÐ²ÐµÐ½",
        "Ð½ÑĭÐ¹"
      ],
      [
        "ĠÑĨ",
        "Ð¸ÐºÐ»"
      ],
      [
        "ÑģÐºÑĥÑģ",
        "ÑģÑĤÐ²ÐµÐ½Ð½ÑĭÐ¹"
      ],
      [
        "Ġ",
        "60"
      ],
      [
        "Ġ",
        "+"
      ],
      [
        "Ð°",
        "Ñħ"
      ],
      [
        "Ġb",
        "lu"
      ],
      [
        "ÑģÐº",
        "Ð°Ð·"
      ],
      [
        "Ġblu",
        "e"
      ],
      [
        "Ð",
        "ĺ"
      ],
      [
        "a",
        "s"
      ],
      [
        "a",
        "y"
      ],
      [
        "u",
        "g"
      ],
      [
        "Â",
        "²"
      ],
      [
        "Ñĭ",
        "Ñħ"
      ],
      [
        "ÑģÑĤ",
        "Ð°Ð»"
      ],
      [
        "Ð¾Ñģ",
        "ÑĮ"
      ],
      [
        "Ġk",
        "m"
      ],
      [
        "ÑģÑĤÐ°Ð»",
        "Ð¾ÑģÑĮ"
      ],
      [
        "i",
        "l"
      ],
      [
        "o",
        "ld"
      ],
      [
        "Ð",
        "§"
      ],
      [
        "Ð½",
        "Ð°"
      ],
      [
        "ĠÐ¿",
        "ÐµÑĢ"
      ],
      [
        "Ð°Ðº",
        "ÑĤ"
      ],
      [
        "Ð¸ÑĤ",
        "ÑģÑı"
      ],
      [
        "Ġh",
        "old"
      ],
      [
        "igh",
        "t"
      ],
      [
        "Ġ",
        "r"
      ],
      [
        "Ð¼",
        "Ð½"
      ],
      [
        "ÑĥÐ¹",
        "ÑĤÐµ"
      ],
      [
        "Ġf",
        "i"
      ],
      [
        "ĠÑģÐ²",
        "ÐµÑĤ"
      ],
      [
        "r",
        "i"
      ],
      [
        "ĠÐ",
        "¡"
      ],
      [
        "ÑģÑĤ",
        "ÑĢ"
      ],
      [
        "ÐµÑģ",
        "Ñģ"
      ],
      [
        "ĠÐ¿ÑĢÐ¾ÑģÑĤ",
        "Ñĭ"
      ],
      [
        "ÑĢÐ°",
        "Ñī"
      ],
      [
        "Ġb",
        "re"
      ],
      [
        "Ġb",
        "alls"
      ],
      [
        "ĠÑĥ",
        "ÑģÐ»"
      ],
      [
        "Ġsc",
        "atter"
      ],
      [
        "Ġon",
        "e"
      ],
      [
        "ĠÑĥÑģÐ»",
        "Ð¾Ð²"
      ],
      [
        "Ð»",
        "Ð¾Ðº"
      ],
      [
        "Ð´",
        "Ð¸Ð½"
      ],
      [
        "ach",
        "in"
      ],
      [
        "m",
        "p"
      ],
      [
        "u",
        "se"
      ],
      [
        "Ġ",
        "R"
      ],
      [
        "Ð°",
        "ÐµÐ¼"
      ],
      [
        "ÐµÑĤ",
        "Ñĭ"
      ],
      [
        "ĠÐ¾",
        "Ð±ÑĬÑıÑģÐ½Ð¸"
      ],
      [
        "Ð°Ð",
        "±"
      ],
      [
        "er",
        "at"
      ],
      [
        "Ð¸Ð¼",
        "ÐµÑĢ"
      ],
      [
        "b",
        "ed"
      ],
      [
        "k",
        "e"
      ],
      [
        "k",
        "en"
      ],
      [
        "ĠÐ",
        "»"
      ],
      [
        "ĠÐ",
        "ł"
      ],
      [
        "Ðµ",
        "ÑĢÐ°"
      ],
      [
        "Ñģ",
        "Ð¸Ñģ"
      ],
      [
        "Ġa",
        "s"
      ],
      [
        "ĠÑģ",
        "ÐµÐ±"
      ],
      [
        "ĠÑģ",
        "Ð¸Ð½ÑĤ"
      ],
      [
        "Ð°Ðº",
        "ÑģÐ¸Ñģ"
      ],
      [
        "ĠÐ½",
        "Ðµ"
      ],
      [
        "Ġto",
        "ken"
      ],
      [
        "Ġg",
        "en"
      ],
      [
        "ĠÑģÐ¸Ð½ÑĤ",
        "Ð°ÐºÑģÐ¸Ñģ"
      ],
      [
        "f",
        "ic"
      ],
      [
        "o",
        "o"
      ],
      [
        "Ġ",
        "x"
      ],
      [
        "ĠÐ",
        "ļÐ°Ðº"
      ],
      [
        "Ð¸",
        "ÑģÑĤ"
      ],
      [
        "Ð³",
        "Ð¾"
      ],
      [
        "Ð¾ÑĢ",
        "Ð¼"
      ],
      [
        "Ð¾ÑĢ",
        "Ð¾Ð´"
      ],
      [
        "Ġst",
        "ep"
      ],
      [
        "ĠÐ´Ð°Ð½",
        "Ð½ÑĭÑħ"
      ],
      [
        "g",
        "ra"
      ],
      [
        "ĠÐ",
        "¯"
      ],
      [
        "ou",
        "r"
      ],
      [
        "Ġexp",
        "lain"
      ],
      [
        "a",
        "d"
      ],
      [
        "i",
        "able"
      ],
      [
        "n",
        "g"
      ],
      [
        "p",
        "o"
      ],
      [
        "´",
        "Ð°Ñĩ"
      ],
      [
        "Ġ",
        "i"
      ],
      [
        "ĠÐ",
        "ľ"
      ],
      [
        "Ñģ",
        "Ðµ"
      ],
      [
        "Ð½",
        "Ñı"
      ],
      [
        "Ñı",
        "ÑĤ"
      ],
      [
        "Ð°Ð»",
        "ÐµÐ½ÑĮ"
      ],
      [
        "ĠÑĩ",
        "Ð°Ð¹"
      ],
      [
        "ĠÐ¼",
        "Ð°Ð»ÐµÐ½ÑĮ"
      ],
      [
        "ar",
        "iable"
      ],
      [
        "Ġv",
        "ariable"
      ],
      [
        "ĠÑĢÐ°Ñģ",
        "ÑģÐµ"
      ],
      [
        "ĠÐ·Ð°Ð",
        "´Ð°Ñĩ"
      ],
      [
        "ĠÐ¼Ð°Ð»ÐµÐ½ÑĮ",
        "Ðº"
      ],
      [
        "j",
        "ec"
      ],
      [
        "Ġ",
        "Ñħ"
      ],
      [
        "Ðµ",
        "Ðµ"
      ],
      [
        "Ġf",
        "ro"
      ],
      [
        "Ġ1",
        "1"
      ],
      [
        "ac",
        "e"
      ],
      [
        "Ġl",
        "i"
      ],
      [
        "Ġco",
        "de"
      ],
      [
        "jec",
        "ts"
      ],
      [
        "Ġfro",
        "m"
      ],
      [
        "ÐŁ",
        "ÑĢ"
      ],
      [
        "b",
        "out"
      ],
      [
        "Ġa",
        "bout"
      ],
      [
        "ĠÐ²",
        "ÐµÑģ"
      ],
      [
        "Ð½Ð¸",
        "Ð¼"
      ],
      [
        "Ð½Ð¸",
        "Ð³"
      ],
      [
        "ĠÐ¿ÑĢ",
        "Ð¸Ð²ÐµÑĤ"
      ],
      [
        "Ġp",
        "re"
      ],
      [
        "Ġp",
        "ar"
      ],
      [
        "m",
        "bed"
      ],
      [
        "Ñĥ",
        "Ð±"
      ],
      [
        "ĠÑģ",
        "Ðº"
      ],
      [
        "ĠÐ²",
        "ÐµÑĩ"
      ],
      [
        "ĠÐº",
        "Ð°Ð¶"
      ],
      [
        "se",
        "s"
      ],
      [
        "ĠÐ´",
        "ÐµÐ½ÑĮ"
      ],
      [
        "ĠÐ¼",
        "Ð¸Ð½"
      ],
      [
        "Ð¾Ñģ",
        "Ð¼Ð¾Ñģ"
      ],
      [
        "ic",
        "e"
      ],
      [
        "ÐµÐ´",
        "ÑĥÑİÑī"
      ],
      [
        "ĠÑģÐ»",
        "ÐµÐ´ÑĥÑİÑī"
      ],
      [
        "Ð¾Ð±",
        "ÑĢÑĭÐ¹"
      ],
      [
        "ĠÐ·Ð°Ð",
        "¿"
      ],
      [
        "Ġlearn",
        "ing"
      ],
      [
        "Ð´Ñĭ",
        "Ð¹"
      ],
      [
        "Ġintellig",
        "ence"
      ],
      [
        "mbed",
        "ding"
      ],
      [
        "ĠÐ²ÐµÑĩ",
        "ÐµÑĢ"
      ],
      [
        "ĠÐºÐ°Ð¶",
        "Ð´ÑĭÐ¹"
      ],
      [
        "ĠÐ¼Ð¸Ð½",
        "ÑĥÑĤ"
      ],
      [
        "ĠÑģÐ»ÐµÐ´ÑĥÑİÑī",
        "Ð¸Ð¹"
      ],
      [
        "ÑĢ",
        "Ð¾Ð¼"
      ],
      [
        "Ð»",
        "Ð¾"
      ],
      [
        "Ñĩ",
        "Ð¸ÑĤ"
      ],
      [
        "ĠÐ²",
        "Ð°Ñģ"
      ],
      [
        "ĠÐº",
        "Ð¼"
      ],
      [
        "Ð°Ð»",
        "Ð°"
      ],
      [
        "ĠÐ¾",
        "ÑģÑĤÐ°Ð»Ð¾ÑģÑĮ"
      ],
      [
        "Ð´",
        "Ð°Ð»Ð°"
      ],
      [
        "ĠÐ¾ÑĤ",
        "Ð´Ð°Ð»Ð°"
      ],
      [
        "ĠÑģÐ»",
        "Ð¾Ð²"
      ],
      [
        "Ġmo",
        "st"
      ],
      [
        "ĠÐ¿ÑĢÐµÐ´",
        "ÑģÐºÐ°Ð·"
      ],
      [
        "ĠÐ±Ñĭ",
        "Ð»Ð¾"
      ],
      [
        "Ġ15",
        "0"
      ],
      [
        "Ð§",
        "ÑĤÐ¾"
      ],
      [
        "ĠÐ¿ÑĢÐµÐ´ÑģÐºÐ°Ð·",
        "ÑĭÐ²"
      ],
      [
        "Ñģ",
        "ÑĦ"
      ],
      [
        "Ð°Ð",
        "³"
      ],
      [
        "ĠÐ¸",
        "ÑģÐºÑĥÑģÑģÑĤÐ²ÐµÐ½Ð½ÑĭÐ¹"
      ],
      [
        "Ð²",
        "Ð¾"
      ],
      [
        "ĠÐ³",
        "ÐµÐ½"
      ],
      [
        "ÑĢÐ°Ð½",
        "ÑģÑĦ"
      ],
      [
        "Ð¾ÑĢÐ¼",
        "ÐµÑĢ"
      ],
      [
        "ÑĢÐ°Ð½ÑģÑĦ",
        "Ð¾ÑĢÐ¼ÐµÑĢ"
      ],
      [
        "Ð¸",
        "Ð¿"
      ],
      [
        "Ġp",
        "l"
      ],
      [
        "ar",
        "th"
      ],
      [
        "ĠE",
        "arth"
      ],
      [
        "Ġpro",
        "gra"
      ],
      [
        "P",
        "I"
      ],
      [
        "a",
        "st"
      ],
      [
        "Ġ",
        "G"
      ],
      [
        "ĠÐ",
        "Ŀ"
      ],
      [
        "Ð½",
        "Ð°Ñı"
      ],
      [
        "Ġt",
        "hat"
      ],
      [
        "Ð±",
        "Ð»Ð¾Ðº"
      ],
      [
        "Ð¾Ð²",
        "Ð¸ÑĤÑĮ"
      ],
      [
        "Ġm",
        "achin"
      ],
      [
        "it",
        "t"
      ],
      [
        "ĠÑĥ",
        "Ð¼Ð½"
      ],
      [
        "Ð³",
        "Ð¾ÑĤ"
      ],
      [
        "ĠÐ¿ÑĢÐ¾",
        "ÑĨ"
      ],
      [
        "ic",
        "k"
      ],
      [
        "ĠÑĢ",
        "Ð°Ð±"
      ],
      [
        "ĠÑı",
        "Ð±Ð»Ð¾Ðº"
      ],
      [
        "Ġte",
        "a"
      ],
      [
        "ĠÐ¿ÑĢÐ¸",
        "Ð³Ð¾ÑĤ"
      ],
      [
        "ĠÑĤÐµÐº",
        "ÑģÑĤÐ°"
      ],
      [
        "ĠÑĥÐ¼Ð½",
        "Ð¾Ð¶"
      ],
      [
        "ĠÑĢÐ°Ð±",
        "Ð¾ÑĤ"
      ],
      [
        "ĠÐ¿ÑĢÐ¸Ð³Ð¾ÑĤ",
        "Ð¾Ð²Ð¸ÑĤÑĮ"
      ],
      [
        "k",
        "ing"
      ],
      [
        "p",
        "s"
      ],
      [
        "Ġa",
        "d"
      ],
      [
        "Ġs",
        "m"
      ],
      [
        "Ġs",
        "p"
      ],
      [
        "at",
        "h"
      ],
      [
        "ĠÐ¾ÑĤ",
        "Ð²"
      ],
      [
        "Ġre",
        "c"
      ],
      [
        "ĠÐ½Ð¾Ð²",
        "Ð¾Ð³Ð¾"
      ],
      [
        "Ġwor",
        "ds"
      ],
      [
        "Ð°ÐºÑĤ",
        "Ð¸Ðº"
      ],
      [
        "c",
        "tion"
      ],
      [
        "i",
        "fic"
      ],
      [
        "r",
        "t"
      ],
      [
        "Ð°",
        "ÑĪ"
      ],
      [
        "Ġt",
        "im"
      ],
      [
        "Ð¼",
        "Ð¸"
      ],
      [
        "ĠÐº",
        "Ð½Ð¸Ð³"
      ],
      [
        "ĠÐ½",
        "ÐµÐ¹"
      ],
      [
        "Ġb",
        "e"
      ],
      [
        "ĠÐµ",
        "Ð´"
      ],
      [
        "ĠÐ¶",
        "Ð°Ð½"
      ],
      [
        "ÑĢÐ¾Ñģ",
        "ÐµÑĤ"
      ],
      [
        "Ġli",
        "ke"
      ],
      [
        "ific",
        "ial"
      ],
      [
        "rt",
        "ificial"
      ],
      [
        "p",
        "p"
      ],
      [
        "r",
        "in"
      ],
      [
        "Ð",
        "¯"
      ],
      [
        "Ð¸",
        "Ð½Ð¸"
      ],
      [
        "Ñĥ",
        "Ð¼"
      ],
      [
        "Ñĥ",
        "ÐµÑĤ"
      ],
      [
        "ĠÐ¿",
        "Ð¾Ñģ"
      ],
      [
        "Ð¾Ð»",
        "ÑĥÐ±"
      ],
      [
        "or",
        "t"
      ],
      [
        "ĠÐ±",
        "ÑĥÐ´"
      ],
      [
        "Ð¾ÑĢ",
        "Ð¾"
      ],
      [
        "ĠÐ³",
        "Ð¾Ð»ÑĥÐ±"
      ],
      [
        "ĠÐ½ÐµÐ±",
        "Ð¾"
      ],
      [
        "ĠÐ±ÑĥÐ´",
        "ÐµÑĤ"
      ],
      [
        "ĠÐ³Ð¾Ð»ÑĥÐ±",
        "Ð¾Ðµ"
      ],
      [
        "a",
        "se"
      ],
      [
        "t",
        "or"
      ],
      [
        "ĠÐ",
        "¡Ðº"
      ],
      [
        "Ð¸",
        "Ñħ"
      ],
      [
        "Ð¸",
        "Ð´"
      ],
      [
        "ÑĢ",
        "Ð¸"
      ],
      [
        "ĠÐ¿",
        "Ð¾Ð´"
      ],
      [
        "Ð»",
        "Ñı"
      ],
      [
        "Ð¾Ð²",
        "ÐµÑĤ"
      ],
      [
        "ĠÐ¼",
        "Ð¾Ð³Ñĥ"
      ],
      [
        "Ġh",
        "our"
      ],
      [
        "ĠÐ¿ÑĢÐ¾",
        "ÐµÐºÑĤ"
      ],
      [
        "Ġn",
        "um"
      ],
      [
        "Ð°ÑģÑĤ",
        "ÑĮ"
      ],
      [
        "ur",
        "s"
      ],
      [
        "ĠÐ¿Ð¾Ð²ÑĤÐ¾ÑĢ",
        "ÑıÐµÑĤ"
      ],
      [
        "ĠÑĥÑģÐ»Ð¾Ð²",
        "Ð¸Ðµ"
      ],
      [
        "a",
        "ve"
      ],
      [
        "Ð¸",
        "Ñİ"
      ],
      [
        "it",
        "y"
      ],
      [
        "Ð°Ñģ",
        "Ñģ"
      ],
      [
        "es",
        "s"
      ],
      [
        "Ð·",
        "Ð°"
      ],
      [
        "ĠÐµ",
        "Ð³Ð¾"
      ],
      [
        "mm",
        "ing"
      ],
      [
        "ĠÑģÐº",
        "Ð¾Ð»ÑĮÐºÐ¾"
      ],
      [
        "b",
        "ug"
      ],
      [
        "i",
        "ence"
      ],
      [
        "ĠÐ¿ÑĢ",
        "ÐµÐ²"
      ],
      [
        "Ġs",
        "im"
      ],
      [
        "ĠÑĩ",
        "Ð°Ñģ"
      ],
      [
        "en",
        "d"
      ],
      [
        "Ð¸Ð»",
        "ÑĮ"
      ],
      [
        "Ġ5",
        "6"
      ],
      [
        "Ġsc",
        "ience"
      ],
      [
        "ÐµÐ³",
        "Ð¾"
      ],
      [
        "Ġde",
        "bug"
      ],
      [
        "ĠÐºÐ¾ÑĤÐ¾",
        "ÑĢÑĭ"
      ],
      [
        "Ġne",
        "xt"
      ],
      [
        "rac",
        "tion"
      ],
      [
        "Ġbox",
        "es"
      ],
      [
        "ĠÑĢÐ°ÑģÑģÐµ",
        "Ð¸Ð²"
      ],
      [
        "ĠÐ¿ÑĢÐµÐ²",
        "ÑĢÐ°Ñī"
      ],
      [
        "Ġsim",
        "ple"
      ],
      [
        "l",
        "y"
      ],
      [
        "o",
        "k"
      ],
      [
        "y",
        "po"
      ],
      [
        "Ð",
        "Ĵ"
      ],
      [
        "Ġ",
        "S"
      ],
      [
        "ĠÐ²",
        "Ð¾Ð´"
      ],
      [
        "ÐµÐ»",
        "ÐµÐ·"
      ],
      [
        "Ġh",
        "ypo"
      ],
      [
        "ĠÐ°",
        "Ð½"
      ],
      [
        "ĠÐ¶",
        "ÐµÐ»ÐµÐ·"
      ],
      [
        "ÑĥÐ»",
        "Ñı"
      ],
      [
        "Ġhypo",
        "t"
      ],
      [
        "ĠÐ",
        "ĳ"
      ],
      [
        "ĠÐĺ",
        "Ðĺ"
      ],
      [
        "a",
        "v"
      ],
      [
        "Ñģ",
        "Ð¸Ð½ÑĤ"
      ],
      [
        "ÑĢ",
        "ÐµÐ¼"
      ],
      [
        "Ġt",
        "h"
      ],
      [
        "ĠÐ²",
        "Ñģ"
      ],
      [
        "ĠÐ²",
        "Ð¾Ðº"
      ],
      [
        "ĠÐ²",
        "ÑĢÐµÐ¼"
      ],
      [
        "ĠÐº",
        "Ð¾Ð½"
      ],
      [
        "Ġd",
        "ro"
      ],
      [
        "Ġe",
        "ach"
      ],
      [
        "Ġe",
        "mbedding"
      ],
      [
        "Ġl",
        "ist"
      ],
      [
        "Ð¾ÑĤÐ¾",
        "ÑģÐ¸Ð½ÑĤ"
      ],
      [
        "ĠÐ¸Ð½ÑĤ",
        "ÐµÑĢ"
      ],
      [
        "ĠÐ·Ð°Ð´Ð°Ñĩ",
        "Ð¸"
      ],
      [
        "ĠÐ¼Ð°Ð»ÐµÐ½ÑĮÐº",
        "Ð¸Ðµ"
      ],
      [
        "Ġpar",
        "ts"
      ],
      [
        "ĠÐ²Ð¾Ðº",
        "ÑĢÑĥÐ³"
      ],
      [
        "ĠÐºÐ¾Ð½",
        "ÑĤ"
      ],
      [
        "Ð¾ÑĤÐ¾ÑģÐ¸Ð½ÑĤ",
        "ÐµÐ·"
      ],
      [
        "k",
        "y"
      ],
      [
        "Ðµ",
        "Ð½Ð¸"
      ],
      [
        "ĠÐ²",
        "Ð¾Ð·"
      ],
      [
        "Ġs",
        "ky"
      ],
      [
        "ĠÐº",
        "Ð¸ÑģÐ»"
      ],
      [
        "ĠÐ¾",
        "Ð²Ð¾"
      ],
      [
        "Ġw",
        "ater"
      ],
      [
        "ion",
        "s"
      ],
      [
        "Ñī",
        "Ð°Ð¼Ð¸"
      ],
      [
        "ĠÐ§",
        "ÐµÐ¼"
      ],
      [
        "Ð¸ÑĤÑĮ",
        "ÑģÑı"
      ],
      [
        "ÑĭÐ²",
        "Ð°ÐµÑĤ"
      ],
      [
        "Ð¸ÑģÑĤ",
        "ÐµÐ¼"
      ],
      [
        "Ġpl",
        "an"
      ],
      [
        "ĠÐºÐ¸ÑģÐ»",
        "Ð¾ÑĢÐ¾Ð´"
      ],
      [
        "ĠÐ¾Ð²Ð¾",
        "ÑīÐ°Ð¼Ð¸"
      ],
      [
        "b",
        "it"
      ],
      [
        "i",
        "r"
      ],
      [
        "l",
        "is"
      ],
      [
        "Ġ",
        "9"
      ],
      [
        "re",
        "ss"
      ],
      [
        "Ġw",
        "h"
      ],
      [
        "ĠÐ´",
        "ÑĢÑĥÐ³"
      ],
      [
        "ow",
        "n"
      ],
      [
        "Ñĳ",
        "Ð¼"
      ],
      [
        "ĠE",
        "ng"
      ],
      [
        "de",
        "l"
      ],
      [
        "Ġmo",
        "del"
      ],
      [
        "Ġor",
        "bit"
      ],
      [
        "Ġhe",
        "l"
      ],
      [
        "ĠÑĢÐ°Ð±Ð¾ÑĤ",
        "Ð°ÐµÑĤ"
      ],
      [
        "lis",
        "h"
      ],
      [
        "ĠEng",
        "lish"
      ],
      [
        "f",
        "itt"
      ],
      [
        "u",
        "ll"
      ],
      [
        "ÑĢ",
        "Ð¾Ð½"
      ],
      [
        "Ðº",
        "Ð°"
      ],
      [
        "ĠÐ²",
        "Ð¸Ð´"
      ],
      [
        "ĠÐ¿ÑĢ",
        "Ð°ÐºÑĤÐ¸Ðº"
      ],
      [
        "Ġs",
        "l"
      ],
      [
        "Ġthe",
        "n"
      ],
      [
        "ĠÐ´",
        "Ð»Ñı"
      ],
      [
        "ĠÐ¼",
        "Ðµ"
      ],
      [
        "ĠÑĥ",
        "Ð¶"
      ],
      [
        "Ð¸Ðº",
        "Ñĥ"
      ],
      [
        "ĠÑĢ",
        "Ð°Ð·"
      ],
      [
        "ĠÐ°",
        "ÑĤÐ¾Ð¼"
      ],
      [
        "Ġco",
        "mp"
      ],
      [
        "ĠÐ¿ÑĢÐ¾ÑģÑĤ",
        "Ð¾Ðµ"
      ],
      [
        "ÑħÐ¾Ð´",
        "Ð¸ÑĤ"
      ],
      [
        "ver",
        "fitt"
      ],
      [
        "ĠÐ¡",
        "Ð¿"
      ],
      [
        "ĠG",
        "it"
      ],
      [
        "Ġsm",
        "all"
      ],
      [
        "ĠÐ¡Ðº",
        "Ð¾Ð»ÑĮÐºÐ¾"
      ],
      [
        "verfitt",
        "ing"
      ],
      [
        "ĠÐ",
        "ķ"
      ],
      [
        "e",
        "ep"
      ],
      [
        "v",
        "ity"
      ],
      [
        "Â",
        "°"
      ],
      [
        "Ġ",
        "0"
      ],
      [
        "Ġ",
        "ÑģÑĤÑĢ"
      ],
      [
        "Ī",
        "Ð°Ð³"
      ],
      [
        "Ñģ",
        "Ð»Ð¸"
      ],
      [
        "Ñĥ",
        "Ð¶"
      ],
      [
        "Ġt",
        "ow"
      ],
      [
        "Ð°Ðº",
        "Ð¾Ð²"
      ],
      [
        "Ġm",
        "in"
      ],
      [
        "ĠÑ",
        "ĪÐ°Ð³"
      ],
      [
        "Ð°ÑĤ",
        "ÐµÐ¼"
      ],
      [
        "Ġf",
        "raction"
      ],
      [
        "ĠÑĥ",
        "Ð¿"
      ],
      [
        "ar",
        "d"
      ],
      [
        "ÑĨÐ¸",
        "Ð¸"
      ],
      [
        "ra",
        "vity"
      ],
      [
        "ĠA",
        "PI"
      ],
      [
        "Ġint",
        "o"
      ],
      [
        "Ġprogra",
        "mming"
      ],
      [
        "Ġtim",
        "e"
      ],
      [
        "Ġtow",
        "ard"
      ],
      [
        "i",
        "ve"
      ],
      [
        "t",
        "ice"
      ],
      [
        "¦",
        "Ð¸ÐºÐ»"
      ],
      [
        "Ġt",
        "rain"
      ],
      [
        "ĠÐ¾",
        "Ð±ÑĬ"
      ],
      [
        "Ġp",
        "rac"
      ],
      [
        "ÐµÐ½",
        "Ð½ÑĭÐµ"
      ],
      [
        "en",
        "ses"
      ],
      [
        "Ġprac",
        "tice"
      ],
      [
        "T",
        "he"
      ],
      [
        ")",
        ":"
      ],
      [
        "H",
        "ell"
      ],
      [
        "¤",
        "ÑĥÐ½ÐºÑĨÐ¸"
      ],
      [
        "Ð¾",
        "Ñĩ"
      ],
      [
        "ÑĤ",
        "Ð°ÑĤ"
      ],
      [
        "Ñĭ",
        "ÑĪ"
      ],
      [
        "ÑĮ",
        "ÑĤÐ°ÑĤ"
      ],
      [
        "Ġa",
        "pp"
      ],
      [
        "Ġp",
        "o"
      ],
      [
        "Ð´",
        "ÑĢÐ°Ð²"
      ],
      [
        "ĠÐ¼",
        "ÑĭÑĪ"
      ],
      [
        "Ð¾Ð»ÑĮ",
        "Ð·"
      ],
      [
        "ÐµÐ·",
        "ÑĥÐ»"
      ],
      [
        "ĠÑĢ",
        "ÐµÐ·ÑĥÐ»"
      ],
      [
        "ÑģÑĤÐ²",
        "ÑĥÐ¹ÑĤÐµ"
      ],
      [
        "ĠÐŁÑĢ",
        "Ð¸Ð¼ÐµÑĢ"
      ],
      [
        "ÑģÑĤÐ¾",
        "Ñı"
      ],
      [
        "Ġsh",
        "ort"
      ],
      [
        "ĠÑĦÑĥÐ½ÐºÑĨÐ¸",
        "Ñı"
      ],
      [
        "ĠÐ¾ÑĤÐ²",
        "ÐµÑĤÑĭ"
      ],
      [
        "Ġrec",
        "urs"
      ],
      [
        "ĠÐ¿Ð¾Ñģ",
        "Ð¾Ð²ÐµÑĤ"
      ],
      [
        "Hell",
        "o"
      ],
      [
        "¤ÑĥÐ½ÐºÑĨÐ¸",
        "Ñı"
      ],
      [
        "Ð´ÑĢÐ°Ð²",
        "ÑģÑĤÐ²ÑĥÐ¹ÑĤÐµ"
      ],
      [
        "ĠÐ¼ÑĭÑĪ",
        "Ð»"
      ],
      [
        "ĠÑĢÐµÐ·ÑĥÐ»",
        "ÑĮÑĤÐ°ÑĤ"
      ],
      [
        "a",
        "m"
      ],
      [
        "m",
        "e"
      ],
      [
        "Ġ",
        "rain"
      ],
      [
        "Ñĭ",
        "ÑĩÐ¸ÑĤ"
      ],
      [
        "ĠÐ¿",
        "Ð¾Ð¼Ð¾Ð³"
      ],
      [
        "ĠÐ¸",
        "ÑģÑĤ"
      ],
      [
        "Ð²",
        "Ñĳ"
      ],
      [
        "he",
        "re"
      ],
      [
        "ĠÐ¾",
        "Ð½Ð°"
      ],
      [
        "Ġp",
        "rin"
      ],
      [
        "ÐµÑĢ",
        "ÐµÐ·"
      ],
      [
        "Ġb",
        "as"
      ],
      [
        "Ð·",
        "Ð´Ñĭ"
      ],
      [
        "Ð¸Ð²",
        "Ð°Ð¹ÑĤÐµ"
      ],
      [
        "ÑĥÑĩ",
        "Ð°ÑĤÑĮ"
      ],
      [
        "ĠÐ²Ñĭ",
        "ÑħÐ¾Ð´"
      ],
      [
        "ĠÐ¸Ð·",
        "ÑĥÑĩÐ°ÑĤÑĮ"
      ],
      [
        "ĠÐ¿ÑĢÐ¾Ð³ÑĢÐ°Ð¼Ð¼",
        "Ð¸ÑĢÐ¾Ð²Ð°Ð½Ð¸Ðµ"
      ],
      [
        "ĠÑĦÑĥÐ½ÐºÑĨÐ¸",
        "Ð¸"
      ],
      [
        "ĠÐĲ",
        "Ð½Ð¸"
      ],
      [
        "ĠÑĨÐ¸ÐºÐ»",
        "Ñĭ"
      ],
      [
        "Ġgen",
        "erat"
      ],
      [
        "Ġhour",
        "s"
      ],
      [
        "ÑĭÑĩÐ¸ÑĤ",
        "Ð°ÐµÐ¼"
      ],
      [
        "Ð²Ñĳ",
        "Ð·Ð´Ñĭ"
      ],
      [
        "Ġbas",
        "ic"
      ],
      [
        "b",
        "jects"
      ],
      [
        "e",
        "ts"
      ],
      [
        "Ð°",
        "Ð½Ð¸Ðµ"
      ],
      [
        "ÑĤ",
        "Ð¼Ð¾Ñģ"
      ],
      [
        "ÑĢ",
        "Ð½ÑĭÐ¹"
      ],
      [
        "Ġt",
        "w"
      ],
      [
        "Ġa",
        "re"
      ],
      [
        "ĠÑĤ",
        "Ð¾Ð»ÑĮÐºÐ¾"
      ],
      [
        "ÐµÑĢ",
        "Ð¸ÑĢ"
      ],
      [
        "Ġf",
        "un"
      ],
      [
        "Ġo",
        "bjects"
      ],
      [
        "Ġre",
        "p"
      ],
      [
        "Ġk",
        "n"
      ],
      [
        "ĠÐ´ÐµÐ»",
        "Ð°"
      ],
      [
        "ĠÐ³ÐµÐ½",
        "ÐµÑĢÐ¸ÑĢ"
      ],
      [
        "Ð°ÑĪ",
        "Ð¸Ð½"
      ],
      [
        "ÑĢÐ¾ÑģÐµÑĤ",
        "Ð¸"
      ],
      [
        "Ġplan",
        "ets"
      ],
      [
        "ÑĤÐ¼Ð¾Ñģ",
        "ÑĦ"
      ],
      [
        "a",
        "x"
      ],
      [
        "a",
        "il"
      ],
      [
        "d",
        "ic"
      ],
      [
        "Ð",
        "Ĺ"
      ],
      [
        "Ð",
        "ļ"
      ],
      [
        "ÑĤ",
        "ÑĢÐ°Ð½ÑģÑĦÐ¾ÑĢÐ¼ÐµÑĢ"
      ],
      [
        "Ð»",
        "Ð°Ð²"
      ],
      [
        "Ñħ",
        "Ð°"
      ],
      [
        "es",
        "t"
      ],
      [
        "Ġyou",
        "r"
      ],
      [
        "Ġre",
        "ad"
      ],
      [
        "ĠÐ¿ÑĢÐ¸",
        "Ð½Ð¸Ð¼"
      ],
      [
        "Ġwor",
        "ri"
      ],
      [
        "ĠÑģÐµÐ±",
        "Ðµ"
      ],
      [
        "Ġtoken",
        "s"
      ],
      [
        "Ġpre",
        "dic"
      ],
      [
        "ĠÑĥÐ¼Ð½Ð¾Ð¶",
        "Ð¸ÑĤÑĮ"
      ],
      [
        "ĠÑĩÐ°Ñģ",
        "Ð°"
      ],
      [
        "Ġhel",
        "p"
      ],
      [
        "Ġworri",
        "es"
      ],
      [
        "o",
        "s"
      ],
      [
        "Ġ",
        "le"
      ],
      [
        "Ġ",
        "qu"
      ],
      [
        "ÑĤ",
        "Ð¾Ð±"
      ],
      [
        "ÑĢ",
        "Ð¾Ð±"
      ],
      [
        "Ð½",
        "ÐµÐ²"
      ],
      [
        "Ñĥ",
        "Ðº"
      ],
      [
        "Ñı",
        "Ð¶"
      ],
      [
        "ĠÐ²",
        "Ð°ÑĤ"
      ],
      [
        "ĠÐ¸",
        "Ð¼"
      ],
      [
        "le",
        "s"
      ],
      [
        "ĠÑĤ",
        "ÑıÐ¶"
      ],
      [
        "ĠÐ½",
        "Ð°Ð·"
      ],
      [
        "Ð¸ÑĤ",
        "Ð°Ð¹ÑĤÐµ"
      ],
      [
        "ÐµÐ»",
        "ÐµÐµ"
      ],
      [
        "ĠÐ·",
        "Ð°Ðº"
      ],
      [
        "Ġf",
        "ac"
      ],
      [
        "ÐµÐº",
        "ÑģÑĤ"
      ],
      [
        "Ġe",
        "qu"
      ],
      [
        "ÐµÐ´",
        "Ð½ÐµÐ²"
      ],
      [
        "Ð°Ð½",
        "ÑĤ"
      ],
      [
        "ĠÑĢ",
        "ÐµÐ³"
      ],
      [
        "Ġg",
        "ravity"
      ],
      [
        "Ð¶",
        "ÐµÐ´Ð½ÐµÐ²"
      ],
      [
        "ĠÐµ",
        "Ð¶ÐµÐ´Ð½ÐµÐ²"
      ],
      [
        "ĠÑĩÐ¸ÑģÐ»",
        "Ð°"
      ],
      [
        "ĠÐ¾Ð±ÑĥÑĩ",
        "ÐµÐ½Ð¸Ðµ"
      ],
      [
        "ĠÑĤÐµÐº",
        "ÑģÑĤ"
      ],
      [
        "Ð¾Ð¿",
        "ÑĢÐ¾Ð±"
      ],
      [
        "ut",
        "es"
      ],
      [
        "ĠÐºÐ½Ð¸Ð³",
        "Ñĥ"
      ],
      [
        "ĠÐ¶Ð°Ð½",
        "ÑĢ"
      ],
      [
        "tor",
        "ial"
      ],
      [
        "ĠÐ¶ÐµÐ»ÐµÐ·",
        "Ð°"
      ],
      [
        "ĠÐºÐ¾Ð½ÑĤ",
        "ÐµÐºÑģÑĤ"
      ],
      [
        "ĠÐ¿ÑĢÐ°ÐºÑĤÐ¸Ðº",
        "Ð°"
      ],
      [
        "ÑĤÐ¾Ð±",
        "Ñĭ"
      ],
      [
        "ĠÐ²Ð°ÑĤ",
        "Ñĭ"
      ],
      [
        "ĠÑĤÑıÐ¶",
        "ÐµÐ»ÐµÐµ"
      ],
      [
        "Ġfac",
        "torial"
      ],
      [
        "Ġequ",
        "al"
      ],
      [
        "ĠÑĢÐµÐ³",
        "ÑĥÐ»Ñı"
      ],
      [
        "Ð¾Ð¿ÑĢÐ¾Ð±",
        "ÑĥÐ¹ÑĤÐµ"
      ],
      [
        "ĠÐŁ",
        "Ð¾Ð¼Ð¾Ð³"
      ],
      [
        "ĠÐŁÑĢ",
        "Ð¸Ð²ÐµÑĤ"
      ],
      [
        "ÐŁÑĢ",
        "Ð¸Ð²ÐµÑĤ"
      ],
      [
        "'",
        "m"
      ],
      [
        "b",
        "le"
      ],
      [
        "l",
        "ve"
      ],
      [
        "u",
        "re"
      ],
      [
        "Ð",
        "ľ"
      ],
      [
        "Ñ",
        "į"
      ],
      [
        "Ġ",
        "W"
      ],
      [
        "Ķ",
        "Ð¾Ð±ÑĢÑĭÐ¹"
      ],
      [
        "Ð°Ð",
        "´"
      ],
      [
        "ĠÐ¿",
        "Ð¾Ðº"
      ],
      [
        "ĠÑģ",
        "Ð¾ÑĤ"
      ],
      [
        "ĠÑģ",
        "Ð¸Ð»ÑĮ"
      ],
      [
        "ÐµÑĤ",
        "ÑĮ"
      ],
      [
        "Ġs",
        "y"
      ],
      [
        "ĠÑĤ",
        "Ñĭ"
      ],
      [
        "ĠÐ¾",
        "Ð¿"
      ],
      [
        "ĠÐ¾",
        "Ð´Ð¸Ð½"
      ],
      [
        "Ġb",
        "u"
      ],
      [
        "ĠÐ´",
        "ÑĭÑħ"
      ],
      [
        "ĠÑĥ",
        "Ñĩ"
      ],
      [
        "ÐµÐ¼",
        "Ñĥ"
      ],
      [
        "Ġl",
        "oo"
      ],
      [
        "ĠÑģÐ¿",
        "ÑĢÐ°Ð²"
      ],
      [
        "ĠÐµ",
        "Ñĳ"
      ],
      [
        "Ġ5",
        "0"
      ],
      [
        "Ġcon",
        "d"
      ],
      [
        "ÐµÑģÑģ",
        "Ð¾Ð¼"
      ],
      [
        "ĠÐľ",
        "Ð¾Ð³Ñĥ"
      ],
      [
        "ĠÐ¿ÑĢÐ¾ÑĨ",
        "ÐµÐ½ÑĤ"
      ],
      [
        "ĠÑĢÐ°ÑģÑģÐµÐ¸Ð²",
        "Ð°ÐµÑĤ"
      ],
      [
        "ĠÐ¸Ð½ÑĤÐµÑĢ",
        "ÐµÑģ"
      ],
      [
        "ĠÑģÑĤÑĢ",
        "ÐµÑģÑģÐ¾Ð¼"
      ],
      [
        "ble",
        "m"
      ],
      [
        "ĠÑģÐ¾ÑĤ",
        "Ð°Ñı"
      ],
      [
        "ĠÑģÐ¸Ð»ÑĮ",
        "Ð½ÐµÐµ"
      ],
      [
        "ĠÑģÐ¿ÑĢÐ°Ð²",
        "Ð¸ÑĤÑĮÑģÑı"
      ],
      [
        "i",
        "es"
      ],
      [
        "l",
        "f"
      ],
      [
        "o",
        "m"
      ],
      [
        "t",
        "e"
      ],
      [
        "Ġ",
        "C"
      ],
      [
        "Ñģ",
        "Ð¿"
      ],
      [
        "Ð¸",
        "Ð·Ð°"
      ],
      [
        "ĠÑģ",
        "Ð¸ÑģÑĤÐµÐ¼"
      ],
      [
        "ĠÐ²",
        "Ð¾Ð¿"
      ],
      [
        "ĠÐ¿ÑĢ",
        "Ð°Ð²"
      ],
      [
        "ĠÐº",
        "Ð¾Ð¼"
      ],
      [
        "Ð¾Ð²",
        "Ð°Ñı"
      ],
      [
        "is",
        "ion"
      ],
      [
        "Ð¾Ð»",
        "Ð½"
      ],
      [
        "Ġw",
        "e"
      ],
      [
        "se",
        "lf"
      ],
      [
        "ĠÐ·",
        "ÐµÐ»"
      ],
      [
        "Ġd",
        "en"
      ],
      [
        "Ġme",
        "an"
      ],
      [
        "ÑģÑĤÐ²",
        "Ð°"
      ],
      [
        "ĠÐ²Ñĭ",
        "Ð·"
      ],
      [
        "ĠÑĦ",
        "Ð¾ÑĤÐ¾ÑģÐ¸Ð½ÑĤÐµÐ·"
      ],
      [
        "xp",
        "lain"
      ],
      [
        "ĠÑıÐ·ÑĭÐº",
        "Ð¾Ð²Ð°Ñı"
      ],
      [
        "Ġscatter",
        "s"
      ],
      [
        "Ġmachin",
        "e"
      ],
      [
        "ĠÐ²Ð¾Ð¿",
        "ÑĢÐ¾Ñģ"
      ],
      [
        "ĠT",
        "he"
      ],
      [
        "a",
        "g"
      ],
      [
        "a",
        "p"
      ],
      [
        "a",
        "king"
      ],
      [
        "l",
        "s"
      ],
      [
        "r",
        "ow"
      ],
      [
        "t",
        "w"
      ],
      [
        "ÑĢ",
        "Ð°Ð·"
      ],
      [
        "Ðº",
        "Ð°Ñħ"
      ],
      [
        "Ð¹",
        "ÑģÐº"
      ],
      [
        "Ð¾Ð²",
        "Ð°ÑĤÑĮ"
      ],
      [
        "at",
        "a"
      ],
      [
        "ĠÑĩ",
        "Ð°ÑģÑĤÑĮ"
      ],
      [
        "an",
        "ge"
      ],
      [
        "en",
        "c"
      ],
      [
        "en",
        "use"
      ],
      [
        "Ġthe",
        "ore"
      ],
      [
        "Ġd",
        "ata"
      ],
      [
        "Ġ1",
        "00"
      ],
      [
        "Ð³",
        "Ð»Ð¸"
      ],
      [
        "ÑĥÑĩ",
        "Ð¸ÑĤÑĮ"
      ],
      [
        "ĠI",
        "t"
      ],
      [
        "Ð½Ð¾",
        "ÑģÑĤ"
      ],
      [
        "ĠÐ²Ñĭ",
        "ÑĥÑĩÐ¸ÑĤÑĮ"
      ],
      [
        "ĠPyth",
        "ag"
      ],
      [
        "all",
        "y"
      ],
      [
        "Ġfor",
        "m"
      ],
      [
        "ore",
        "an"
      ],
      [
        "Ġr",
        "ange"
      ],
      [
        "ĠÐ¿ÑĢÐ¾ÑģÑĤÑĭ",
        "Ðµ"
      ],
      [
        "ĠÑģÐµÐ±",
        "Ñı"
      ],
      [
        "ction",
        "s"
      ],
      [
        "ĠÐ°Ð½",
        "Ð³Ð»Ð¸"
      ],
      [
        "Ġhypot",
        "enuse"
      ],
      [
        "Ð¹ÑģÐº",
        "Ð¸Ð¹"
      ],
      [
        "Ġtheore",
        "m"
      ],
      [
        "ĠPythag",
        "orean"
      ],
      [
        "ĠÐ°Ð½Ð³Ð»Ð¸",
        "Ð¹ÑģÐºÐ¸Ð¹"
      ],
      [
        "Y",
        "ou"
      ],
      [
        "r",
        "it"
      ],
      [
        "Ġ",
        "ÑģÑĤ"
      ],
      [
        "Ġ",
        "You"
      ],
      [
        "Ðµ",
        "ÑĪ"
      ],
      [
        "ĠÐ¿",
        "Ð¾Ð¼"
      ],
      [
        "Ġt",
        "in"
      ],
      [
        "ÑĮ",
        "ÑĤÐµ"
      ],
      [
        "Ġa",
        "rtificial"
      ],
      [
        "ĠÐº",
        "Ð¾ÑģÐ¼Ð¾Ñģ"
      ],
      [
        "ĠÑĤ",
        "Ð¸Ð¿"
      ],
      [
        "an",
        "y"
      ],
      [
        "Ġw",
        "al"
      ],
      [
        "Ġw",
        "rit"
      ],
      [
        "Ġm",
        "any"
      ],
      [
        "ĠÐ·",
        "Ð²ÑĳÐ·Ð´Ñĭ"
      ],
      [
        "ĠÑĥ",
        "ÑĢÐ°Ð²"
      ],
      [
        "Ġh",
        "ave"
      ],
      [
        "Ð½Ðµ",
        "Ð½Ð¸Ðµ"
      ],
      [
        "Ð°Ð½",
        "ÐµÑĤÑĭ"
      ],
      [
        "Ġst",
        "ress"
      ],
      [
        "ĠÑĢÐ°",
        "ÑģÑĤ"
      ],
      [
        "ĠÑģÐ»",
        "Ð¾Ð²Ð°"
      ],
      [
        "ĠÐ¿ÑĢÐ¾ÑģÑĤ",
        "Ð¾"
      ],
      [
        "Ġte",
        "xt"
      ],
      [
        "Ġde",
        "al"
      ],
      [
        "ple",
        "ts"
      ],
      [
        "Ġexp",
        "an"
      ],
      [
        "ĠÐ¿Ð»",
        "Ð°Ð½ÐµÑĤÑĭ"
      ],
      [
        "Ġbre",
        "ath"
      ],
      [
        "ĠÐ»",
        "Ñİ"
      ],
      [
        "ĠÐ¿ÑĢÐµÐ´ÑģÐºÐ°Ð·ÑĭÐ²",
        "Ð°ÑĤÑĮ"
      ],
      [
        "ĠÐĳ",
        "Ð¾Ð»ÑĮÑĪ"
      ],
      [
        "Ġdro",
        "plets"
      ],
      [
        "Ð¾Ñĩ",
        "ÑĮ"
      ],
      [
        "ÐµÑĪ",
        "Ð¸"
      ],
      [
        "Ġtin",
        "y"
      ],
      [
        "ĠÑĥÑĢÐ°Ð²",
        "Ð½ÐµÐ½Ð¸Ðµ"
      ],
      [
        "Ġbreath",
        "ing"
      ],
      [
        "Ð½",
        "Ð°Ñĩ"
      ],
      [
        "ĠÑģ",
        "Ñĭ"
      ],
      [
        "ĠÐ¾",
        "Ð´"
      ],
      [
        "ĠÐ¾",
        "Ð±Ñ"
      ],
      [
        "Ñİ",
        "ÑĤ"
      ],
      [
        "Ġ2",
        "0"
      ],
      [
        "ÑĨÐ¸",
        "Ñı"
      ],
      [
        "ĠÐ²Ñĭ",
        "Ð¿"
      ],
      [
        "ĠÐ±Ð¾Ð»ÑĮÑĪ",
        "Ðµ"
      ],
      [
        "ÑģÑĤÐ¾",
        "Ð¸ÑĤ"
      ],
      [
        "ĠÑģÐ¾",
        "ÑģÑĤÐ¾Ð¸ÑĤ"
      ],
      [
        "ĠÐ¿Ð¾Ð²ÑĤÐ¾ÑĢ",
        "Ñı"
      ],
      [
        "Ġad",
        "d"
      ],
      [
        "Ġsp",
        "ace"
      ],
      [
        "ĠÐ²Ñģ",
        "Ñĳ"
      ],
      [
        "ĠÑĥÐ¶",
        "Ð¸Ð½"
      ],
      [
        "ĠÐ¾Ð±Ñ",
        "ī"
      ],
      [
        "ĠÐŀ",
        "Ð´Ð¸Ð½"
      ],
      [
        "'",
        "s"
      ],
      [
        "e",
        "ad"
      ],
      [
        "p",
        "tion"
      ],
      [
        "s",
        "ist"
      ],
      [
        "u",
        "ter"
      ],
      [
        "Ð¾",
        "ÑģÑĤ"
      ],
      [
        "ÑĤ",
        "Ñĥ"
      ],
      [
        "Ġa",
        "ss"
      ],
      [
        "Ġa",
        "ir"
      ],
      [
        "ĠÑģ",
        "ÐµÐ³"
      ],
      [
        "ĠÐ²",
        "ÐµÐº"
      ],
      [
        "ĠÐ²",
        "ÑħÐ¾Ð´"
      ],
      [
        "ĠÐ¿ÑĢ",
        "Ð¾Ð³ÑĢ"
      ],
      [
        "Ð¾Ð´",
        "Ð½Ñı"
      ],
      [
        "Ġp",
        "ull"
      ],
      [
        "or",
        "m"
      ],
      [
        "Ġd",
        "own"
      ],
      [
        "Ġd",
        "ail"
      ],
      [
        "Ð°ÑİÑĤ",
        "ÑģÑı"
      ],
      [
        "Ġk",
        "eep"
      ],
      [
        "ĠÑĤÐ¾ÐºÐµÐ½",
        "Ð°"
      ],
      [
        "ĠÐºÐ¾ÑĤÐ¾",
        "ÑĢÑĭÐ¹"
      ],
      [
        "ĠÐºÐ¾ÑĤÐ¾ÑĢÑĭ",
        "Ð¼"
      ],
      [
        "Ġcomp",
        "uter"
      ],
      [
        "ÑĤÑĥ",
        "ÑĢÑĭ"
      ],
      [
        "ĠÑģÐµÐ³",
        "Ð¾Ð´Ð½Ñı"
      ],
      [
        "ĠÐ²ÐµÐº",
        "ÑĤÐ¾ÑĢ"
      ],
      [
        "Ġpull",
        "s"
      ],
      [
        "Ġdail",
        "y"
      ],
      [
        "Ġkeep",
        "s"
      ],
      [
        "P",
        "yth"
      ],
      [
        "Pyth",
        "on"
      ],
      [
        "e",
        "m"
      ],
      [
        "n",
        "t"
      ],
      [
        "r",
        "st"
      ],
      [
        "Ð½",
        "ÑĳÐ¼"
      ],
      [
        "Ð°Ð",
        "¿"
      ],
      [
        "ĠÐ¿",
        "Ð¾Ð·"
      ],
      [
        "Ð²",
        "Ð¾Ð»"
      ],
      [
        "he",
        "n"
      ],
      [
        "is",
        "es"
      ],
      [
        "ĠÐ´",
        "Ð¾Ð±ÑĢÑĭÐ¹"
      ],
      [
        "ĠÐ´",
        "Ð½ÑĳÐ¼"
      ],
      [
        "ÐµÐ¼",
        "Ð»Ð¸"
      ],
      [
        "ÑĪ",
        "Ð¸ÑĢ"
      ],
      [
        "Ġto",
        "p"
      ],
      [
        "ĠÐĹ",
        "ÐµÐ¼Ð»Ð¸"
      ],
      [
        "ĠÑĢÐ°Ñģ",
        "ÑĪÐ¸ÑĢ"
      ],
      [
        "ĠÐºÐ¾Ð´",
        "Ð°"
      ],
      [
        "Ġr",
        "ight"
      ],
      [
        "Ġfi",
        "rst"
      ],
      [
        "ĠÐ·Ð°Ð¿",
        "Ð°Ñģ"
      ],
      [
        "ÐµÐ½Ð¸",
        "Ð¸"
      ],
      [
        "Ġmin",
        "utes"
      ],
      [
        "Ġsy",
        "nt"
      ],
      [
        "ĠÐ¿Ð¾Ð·",
        "Ð²Ð¾Ð»"
      ],
      [
        "ĠÑĢÐ°ÑģÑĪÐ¸ÑĢ",
        "ÑıÐµÑĤ"
      ],
      [
        "Ġsynt",
        "ax"
      ],
      [
        "ĠÐ¿Ð¾Ð·Ð²Ð¾Ð»",
        "ÑıÐµÑĤ"
      ],
      [
        "1",
        "5"
      ],
      [
        "ĠS",
        "un"
      ],
      [
        "8",
        "0"
      ],
      [
        "F",
        "or"
      ],
      [
        "i",
        "le"
      ],
      [
        "i",
        "ld"
      ],
      [
        "m",
        "os"
      ],
      [
        "o",
        "es"
      ],
      [
        "o",
        "mm"
      ],
      [
        "p",
        "here"
      ],
      [
        "±",
        "Ñĭ"
      ],
      [
        "Ġ",
        "en"
      ],
      [
        "ĠÐ",
        "Ľ"
      ],
      [
        "Ðµ",
        "Ñī"
      ],
      [
        "Ðµ",
        "ÑģÑĤÐ¾"
      ],
      [
        "Ð½",
        "Ð¾Ð¹"
      ],
      [
        "Ñĭ",
        "Ð¹"
      ],
      [
        "Ð»",
        "ÐµÐº"
      ],
      [
        "ĠÐ²",
        "Ð¼"
      ],
      [
        "ĠÐº",
        "Ð¾Ð»"
      ],
      [
        "ĠÑĤ",
        "ÐµÐ¼"
      ],
      [
        "Ġc",
        "ase"
      ],
      [
        "er",
        "s"
      ],
      [
        "Ġb",
        "ase"
      ],
      [
        "Ð°Ð¶",
        "Ð½Ð¾"
      ],
      [
        "ĠÐ´",
        "ÐµÐ¹"
      ],
      [
        "Ġf",
        "ar"
      ],
      [
        "ÑĨ",
        "Ð°"
      ],
      [
        "ĠÐ¿ÑĢÐ¾",
        "ÑħÐ¾Ð´Ð¸ÑĤ"
      ],
      [
        "Ð¸Ð½",
        "Ð½Ð¾"
      ],
      [
        "th",
        "ing"
      ],
      [
        "Ġo",
        "verfitting"
      ],
      [
        "Ġg",
        "oes"
      ],
      [
        "ÑģÑĤÐ²",
        "Ð¸Ñı"
      ],
      [
        "ĠÐ·Ð°Ð",
        "±Ñĭ"
      ],
      [
        "Ġat",
        "mos"
      ],
      [
        "Ġbo",
        "ok"
      ],
      [
        "Ġpro",
        "jects"
      ],
      [
        "Ġ7",
        "5"
      ],
      [
        "ĠÐĴ",
        "Ð°Ð¶Ð½Ð¾"
      ],
      [
        "Ġ12",
        "0"
      ],
      [
        "Ġso",
        "me"
      ],
      [
        "ĠÐ¿ÑĢÐ¾ÑģÑĤÑĭ",
        "Ð¼Ð¸"
      ],
      [
        "ĠÐł",
        "Ð°Ð´"
      ],
      [
        "ĠÑģÐ»Ð¾Ð²",
        "Ð°Ð¼Ð¸"
      ],
      [
        "ast",
        "er"
      ],
      [
        "Ġsp",
        "e"
      ],
      [
        "ĠÐ¿Ð¾Ð²ÑĤÐ¾ÑĢÑıÐµÑĤ",
        "ÑģÑı"
      ],
      [
        "Ġwh",
        "ile"
      ],
      [
        "ĠÐ²Ð¸Ð´",
        "ÐµÑĤÑĮ"
      ],
      [
        "ĠÑĢÐ°Ð·",
        "Ð±"
      ],
      [
        "ĠÑĪÐ°Ð³",
        "Ð¸"
      ],
      [
        "Ġpo",
        "p"
      ],
      [
        "Ġrecurs",
        "ion"
      ],
      [
        "ĠÐ¸ÑģÑĤ",
        "Ð¸Ð½Ð½Ð¾"
      ],
      [
        "ĠÐ²ÑĭÑħÐ¾Ð´",
        "Ð°"
      ],
      [
        "ĠÐ¿Ð¾Ðº",
        "Ð°"
      ],
      [
        "Ġbu",
        "ild"
      ],
      [
        "omm",
        "end"
      ],
      [
        "Ð»ÐµÐº",
        "ÑĨÐ¸Ð¸"
      ],
      [
        "ĠÐ²Ð¼",
        "ÐµÑģÑĤÐ¾"
      ],
      [
        "ĠÐºÐ¾Ð»",
        "Ð»ÐµÐºÑĨÐ¸Ð¸"
      ],
      [
        "ĠÐ´ÐµÐ¹",
        "ÑģÑĤÐ²Ð¸Ñı"
      ],
      [
        "ĠÐ·Ð°Ð±Ñĭ",
        "ÑĤÑĮ"
      ],
      [
        "Ġatmos",
        "phere"
      ],
      [
        "Ġsome",
        "thing"
      ],
      [
        "c",
        "ess"
      ],
      [
        "d",
        "ay"
      ],
      [
        "e",
        "le"
      ],
      [
        "i",
        "v"
      ],
      [
        "s",
        "is"
      ],
      [
        "t",
        "u"
      ],
      [
        "t",
        "he"
      ],
      [
        "t",
        "al"
      ],
      [
        "Ð",
        "ł"
      ],
      [
        "Ġ",
        "M"
      ],
      [
        "ÑĢ",
        "Ð³"
      ],
      [
        "Ñĩ",
        "ÐµÐ¼Ñĥ"
      ],
      [
        "ĠÐ²",
        "ÐµÑĤ"
      ],
      [
        "ĠÐ²",
        "ÐµÑĢ"
      ],
      [
        "ĠÐ¸",
        "ÑģÐ¿"
      ],
      [
        "Ð²",
        "Ð°Ð»"
      ],
      [
        "Ġs",
        "u"
      ],
      [
        "ĠÐº",
        "ÑĤÐ¾"
      ],
      [
        "ĠÐ¾",
        "Ð³"
      ],
      [
        "Ġm",
        "ath"
      ],
      [
        "Ð¾Ð³",
        "Ð¸ÐºÑĥ"
      ],
      [
        "or",
        "k"
      ],
      [
        "Ġ1",
        "0"
      ],
      [
        "ĠÐ±",
        "ÐµÐ·"
      ],
      [
        "Ġto",
        "day"
      ],
      [
        "Ġto",
        "tal"
      ],
      [
        "Ġo",
        "the"
      ],
      [
        "al",
        "u"
      ],
      [
        "ÑĥÑĩ",
        "Ð¸Ð»"
      ],
      [
        "ĠÐ°",
        "ÑĢÐ³"
      ],
      [
        "Ġg",
        "oo"
      ],
      [
        "ĠÐ¿Ð¾",
        "ÑĩÐµÐ¼Ñĥ"
      ],
      [
        "Ġv",
        "alu"
      ],
      [
        "Ġre",
        "tu"
      ],
      [
        "ĠÑĢÐ°Ñģ",
        "ÑģÐºÐ°Ð¶Ð¸"
      ],
      [
        "Ġpro",
        "cess"
      ],
      [
        "ÐµÐ½ÑĤ",
        "Ð°Ð¼Ð¸"
      ],
      [
        "Ġde",
        "f"
      ],
      [
        "Ġne",
        "tw"
      ],
      [
        "ĠÐ¿Ð¾Ð»",
        "ÑĥÑĩÐ¸Ð»"
      ],
      [
        "ĠÐ¿ÐµÑĢ",
        "ÐµÐ´"
      ],
      [
        "ĠÐ»",
        "Ð¾Ð³Ð¸ÐºÑĥ"
      ],
      [
        "ÑĥÐ¼",
        "ÐµÐ½ÑĤÐ°Ð¼Ð¸"
      ],
      [
        "ĠÐ²Ð¾Ð´",
        "Ñĥ"
      ],
      [
        "Ð°ÐºÐ¾Ð²",
        "ÑĭÐ²Ð°ÐµÑĤ"
      ],
      [
        "ĠÑĥÐ¿",
        "Ð°ÐºÐ¾Ð²ÑĭÐ²Ð°ÐµÑĤ"
      ],
      [
        "ĠÐ²ÑĭÐ·",
        "Ð²Ð°Ð»"
      ],
      [
        "ĠÐ²ÐµÑĢ",
        "Ñģ"
      ],
      [
        "ĠÐ¸ÑģÐ¿",
        "Ð¾Ð»ÑĮÐ·"
      ],
      [
        "Ġothe",
        "r"
      ],
      [
        "ĠÐ°ÑĢÐ³",
        "ÑĥÐ¼ÐµÐ½ÑĤÐ°Ð¼Ð¸"
      ],
      [
        "Ġgoo",
        "d"
      ],
      [
        "Ġretu",
        "rn"
      ],
      [
        "Ġnetw",
        "ork"
      ],
      [
        "ĠÐ",
        "ĵ"
      ],
      [
        "d",
        "ies"
      ],
      [
        "e",
        "lve"
      ],
      [
        "h",
        "in"
      ],
      [
        "h",
        "av"
      ],
      [
        "i",
        "or"
      ],
      [
        "o",
        "il"
      ],
      [
        "o",
        "ls"
      ],
      [
        "u",
        "dies"
      ],
      [
        "Ġ",
        "use"
      ],
      [
        "ÑģÑĤ",
        "ÑĮ"
      ],
      [
        "Ġa",
        "ll"
      ],
      [
        "ĠÐº",
        "Ð¾Ð³"
      ],
      [
        "ĠÐ¾",
        "Ð½"
      ],
      [
        "Ð¾Ð»",
        "ÑĥÑĩ"
      ],
      [
        "Ġm",
        "im"
      ],
      [
        "Ð´",
        "Ð°"
      ],
      [
        "Ð´",
        "Ñĥ"
      ],
      [
        "ar",
        "t"
      ],
      [
        "ĠÐ¿ÑĢÐ¾",
        "ÐµÐ´"
      ],
      [
        "Ġin",
        "de"
      ],
      [
        "ÐµÐ·",
        "ÐµÐ½"
      ],
      [
        "ÐµÐ·",
        "Ð´"
      ],
      [
        "Ġg",
        "row"
      ],
      [
        "Ġst",
        "udies"
      ],
      [
        "ĠÐ¿Ð¾",
        "ÐµÐ·Ð´"
      ],
      [
        "Ġv",
        "ision"
      ],
      [
        "Ġco",
        "ols"
      ],
      [
        "ĠÐ±Ñĭ",
        "ÑĤÑĮ"
      ],
      [
        "Ġdo",
        "es"
      ],
      [
        "Ġhe",
        "av"
      ],
      [
        "ĠÐ¿Ð¾Ð»",
        "ÐµÐ·ÐµÐ½"
      ],
      [
        "Ġintellig",
        "ent"
      ],
      [
        "Ġfi",
        "x"
      ],
      [
        "ÑĢÐ°Ñī",
        "Ð°ÐµÑĤ"
      ],
      [
        "Ġbre",
        "w"
      ],
      [
        "Ġmachin",
        "es"
      ],
      [
        "Ġbe",
        "hav"
      ],
      [
        "ĠÐµÐ´",
        "ÐµÑĤ"
      ],
      [
        "Ð¾ÑĢÐ¾",
        "ÑĪ"
      ],
      [
        "Ġapp",
        "end"
      ],
      [
        "ĠÐ¿Ð¾ÑģÐ¾Ð²ÐµÑĤ",
        "ÑĥÐ¹"
      ],
      [
        "ĠÐ¿Ð¾Ð¼Ð¾Ð³",
        "Ð°ÐµÑĤ"
      ],
      [
        "Ġprin",
        "ts"
      ],
      [
        "Ġgenerat",
        "ion"
      ],
      [
        "Ġtw",
        "elve"
      ],
      [
        "Ġcond",
        "enses"
      ],
      [
        "ap",
        "or"
      ],
      [
        "ĠÐºÐ¾Ð³",
        "Ð´Ð°"
      ],
      [
        "Ð¾Ð»ÑĥÑĩ",
        "Ð¸ÑĤÑģÑı"
      ],
      [
        "Ġmim",
        "ic"
      ],
      [
        "ĠÐ¿ÑĢÐ¾ÐµÐ´",
        "ÐµÑĤ"
      ],
      [
        "Ġinde",
        "x"
      ],
      [
        "Ġheav",
        "y"
      ],
      [
        "Ġbehav",
        "ior"
      ],
      [
        "4",
        "4"
      ],
      [
        "e",
        "ge"
      ],
      [
        "n",
        "er"
      ],
      [
        "p",
        "ut"
      ],
      [
        "p",
        "ace"
      ],
      [
        "t",
        "able"
      ],
      [
        "y",
        "st"
      ],
      [
        "ĠÐ",
        "£"
      ],
      [
        "ĠÐ¿",
        "Ð¾Ð½"
      ],
      [
        "in",
        "ner"
      ],
      [
        "ÑĢÐ°",
        "ÑĪ"
      ],
      [
        "ĠÑĩ",
        "Ð¸Ñģ"
      ],
      [
        "re",
        "en"
      ],
      [
        "Ġd",
        "inner"
      ],
      [
        "ar",
        "m"
      ],
      [
        "Ġin",
        "put"
      ],
      [
        "ĠÑĢ",
        "ÐµÑĪÐ¸"
      ],
      [
        "Ġg",
        "reen"
      ],
      [
        "Ġv",
        "ege"
      ],
      [
        "Ġco",
        "ok"
      ],
      [
        "Ġpro",
        "blem"
      ],
      [
        "Ġsh",
        "ould"
      ],
      [
        "Ġsquare",
        "d"
      ],
      [
        "Ġmost",
        "ly"
      ],
      [
        "ĠÐ¿ÑĢÐ¾ÑĨ",
        "ÐµÑģÑģ"
      ],
      [
        "ĠÐ¡Ð¿",
        "ÑĢÐ°ÑĪ"
      ],
      [
        "ĠÐ¿Ð¾Ð¼",
        "Ð¾ÑĩÑĮ"
      ],
      [
        "ĠÑĢÐ°ÑģÑĤ",
        "ÐµÐ½Ð¸Ñı"
      ],
      [
        "table",
        "s"
      ],
      [
        "ĠÑĩÐ¸Ñģ",
        "ÐµÐ»"
      ],
      [
        "Ġvege",
        "tables"
      ],
      [
        "ĠÐ¡Ð¿ÑĢÐ°ÑĪ",
        "Ð¸Ð²Ð°Ð¹ÑĤÐµ"
      ],
      [
        "Ġ",
        "O"
      ],
      [
        "l",
        "ou"
      ],
      [
        "l",
        "ar"
      ],
      [
        "u",
        "lar"
      ],
      [
        "Ð",
        "ļÐ°Ðº"
      ],
      [
        "Ġ",
        "ÑģÑĤÐ°"
      ],
      [
        "Ð¾",
        "Ð¸Ð¼"
      ],
      [
        "ÑĢ",
        "ÐµÐ±"
      ],
      [
        "Ð½",
        "Ð°Ð²"
      ],
      [
        "Ð½",
        "Ð¾Ð·"
      ],
      [
        "Ñĭ",
        "Ðµ"
      ],
      [
        "Ð½Ð¸",
        "Ð±"
      ],
      [
        "Ð½Ð¸",
        "ÑĤÐµ"
      ],
      [
        "ĠÐ¿ÑĢ",
        "Ð¾Ð´"
      ],
      [
        "ĠÐ¿ÑĢ",
        "Ð¾Ð³"
      ],
      [
        "Ġs",
        "e"
      ],
      [
        "ĠÑĤ",
        "ÑĢÐµÐ±"
      ],
      [
        "Ð¾Ð²",
        "ÐµÑĢ"
      ],
      [
        "Ð¾Ð²",
        "Ð¾Ð³Ð¾"
      ],
      [
        "Ð¾Ð²",
        "ÑĭÐµ"
      ],
      [
        "ĠÐ¾",
        "Ñģ"
      ],
      [
        "ĠÑĩ",
        "ÑĥÐ¶"
      ],
      [
        "ĠÑĩ",
        "ÐµÑĢÐµÐ·"
      ],
      [
        "ĠÑĩ",
        "Ð¸ÑĤÐ°Ð¹ÑĤÐµ"
      ],
      [
        "ou",
        "s"
      ],
      [
        "Ð¾Ð»",
        "Ð¶"
      ],
      [
        "Ð¾Ð»",
        "Ð½Ñı"
      ],
      [
        "Ġc",
        "he"
      ],
      [
        "Ð¿",
        "Ð¾Ð·"
      ],
      [
        "Ð¿",
        "Ð°ÐºÑĤ"
      ],
      [
        "ÐµÐ»",
        "Ð¸"
      ],
      [
        "er",
        "y"
      ],
      [
        "ÐµÐ¼",
        "ÐµÐ½Ð½ÑĭÐµ"
      ],
      [
        "ĠÐ±",
        "Ð°Ð·"
      ],
      [
        "ĠÐĹ",
        "Ð°ÑĤÐµÐ¼"
      ],
      [
        "Ġe",
        "ver"
      ],
      [
        "ÐµÐ¹",
        "ÑĤÐµ"
      ],
      [
        "ĠÑĢÐ°Ñģ",
        "Ð¿Ð¾Ð·"
      ],
      [
        "ĠÑĤÐ¾ÐºÐµÐ½",
        "Ñĭ"
      ],
      [
        "ĠÑģÐ²",
        "Ð¾Ð¸Ð¼"
      ],
      [
        "Ð°Ñĩ",
        "Ð½Ð¸ÑĤÐµ"
      ],
      [
        "Ð·ÑĭÐº",
        "Ð¾Ð²ÑĭÐµ"
      ],
      [
        "ĠÐ¼Ð¾Ð´",
        "ÐµÐ»Ð¸"
      ],
      [
        "ÑĢÐ¾Ñģ",
        "Ð¸ÑĤÐµ"
      ],
      [
        "ĠÐ´ÐµÐ»",
        "Ð°Ð¹ÑĤÐµ"
      ],
      [
        "ÑĥÐ´",
        "ÑĮ"
      ],
      [
        "ÑĥÑİÑī",
        "Ð¸Ðµ"
      ],
      [
        "ĠÐ¿ÐµÑĢ",
        "ÐµÐ¼ÐµÐ½Ð½ÑĭÐµ"
      ],
      [
        "ĠÑĥÑģÐ»Ð¾Ð²",
        "Ð¸Ñı"
      ],
      [
        "ÐµÑĢÐ°",
        "ÑĨÐ¸Ñı"
      ],
      [
        "ĠÑģÐ¸Ð½ÑĤÐ°ÐºÑģÐ¸Ñģ",
        "Ð°"
      ],
      [
        "Ð¸ÑģÑĤ",
        "ÐµÐ½ÑĤ"
      ],
      [
        "ĠÐ¯",
        "Ð·ÑĭÐºÐ¾Ð²ÑĭÐµ"
      ],
      [
        "ĠÐ²ÐµÑģ",
        "Ð°Ð¼"
      ],
      [
        "ĠÐ¿ÑĢÐµÐ´ÑģÐºÐ°Ð·ÑĭÐ²",
        "Ð°ÑİÑĤ"
      ],
      [
        "ĠÐ³ÐµÐ½",
        "ÐµÑĢÐ°ÑĨÐ¸Ñı"
      ],
      [
        "ĠÐ¿ÑĢÐ¾ÐµÐºÑĤ",
        "Ñĭ"
      ],
      [
        "Ð°ÑģÑģ",
        "Ð¸ÑģÑĤÐµÐ½ÑĤ"
      ],
      [
        "ĠÐºÐ¾ÑĤÐ¾ÑĢÑĭ",
        "Ðµ"
      ],
      [
        "ĠÐ¿ÑĢÐµÐ²ÑĢÐ°Ñī",
        "Ð°Ñİ"
      ],
      [
        "ĠÐ¡Ð¿",
        "ÑĢÐ¾ÑģÐ¸ÑĤÐµ"
      ],
      [
        "ĠÐ¼ÑĭÑĪÐ»",
        "ÐµÐ½Ð¸Ñı"
      ],
      [
        "Ġkn",
        "ow"
      ],
      [
        "ĠÐ³ÐµÐ½ÐµÑĢÐ¸ÑĢ",
        "ÑĥÑİ"
      ],
      [
        "Ġyour",
        "self"
      ],
      [
        "ĠÐ¿ÑĢÐ¸Ð½Ð¸Ð¼",
        "Ð°Ñİ"
      ],
      [
        "Ġpredic",
        "t"
      ],
      [
        "Ġqu",
        "ick"
      ],
      [
        "ĠÐºÐ¾Ð½ÑĤÐµÐºÑģÑĤ",
        "Ñĥ"
      ],
      [
        "ĠÐ¾Ð¿",
        "Ð¸Ñģ"
      ],
      [
        "ĠÑģÐ¸ÑģÑĤÐµÐ¼",
        "Ñĭ"
      ],
      [
        "ĠÐºÐ¾Ð¼",
        "Ð¿Ð°ÐºÑĤ"
      ],
      [
        "enc",
        "es"
      ],
      [
        "ĠÐ²ÑĭÐ¿",
        "Ð¾Ð»Ð½Ñı"
      ],
      [
        "Ð½Ð°Ð²",
        "Ð°Ð½Ð¸Ðµ"
      ],
      [
        "Ð½Ð¾Ð·",
        "Ð¸ÑĢÐ¾Ð²Ð°Ð½Ð¸Ðµ"
      ],
      [
        "Ð½Ð¸Ð±",
        "ÑĥÐ´ÑĮ"
      ],
      [
        "ĠÐ¿ÑĢÐ¾Ð´",
        "Ð¾Ð»Ð¶"
      ],
      [
        "ĠÐ¿ÑĢÐ¾Ð³",
        "Ð½Ð¾Ð·Ð¸ÑĢÐ¾Ð²Ð°Ð½Ð¸Ðµ"
      ],
      [
        "ĠÑĤÑĢÐµÐ±",
        "ÑĥÑİÑīÐ¸Ðµ"
      ],
      [
        "ĠÑĩÑĥÐ¶",
        "Ð¾Ð¹"
      ],
      [
        "ĠÐ±Ð°Ð·",
        "Ð¾Ð²Ð¾Ð³Ð¾"
      ],
      [
        "ĠÑĢÐ°ÑģÐ¿Ð¾Ð·",
        "Ð½Ð°Ð²Ð°Ð½Ð¸Ðµ"
      ],
      [
        "ĠÐºÐ¾Ð¼Ð¿Ð°ÐºÑĤ",
        "Ð½ÑĭÐ¹"
      ],
      [
        "ĠÐ²ÑĭÐ¿Ð¾Ð»Ð½Ñı",
        "ÑİÑĤ"
      ],
      [
        "ĠÐ¿ÑĢÐ¾Ð´Ð¾Ð»Ð¶",
        "ÐµÐ½Ð¸Ðµ"
      ],
      [
        "Ð",
        "¦Ð¸ÐºÐ»"
      ],
      [
        "ĠÐ",
        "¦Ð¸ÐºÐ»"
      ],
      [
        "ĠR",
        "ead"
      ],
      [
        "1",
        "00"
      ],
      [
        "c",
        "u"
      ],
      [
        "l",
        "ight"
      ],
      [
        "r",
        "y"
      ],
      [
        "Ð",
        "£"
      ],
      [
        "Ð",
        "¤ÑĥÐ½ÐºÑĨÐ¸Ñı"
      ],
      [
        "Ġ",
        "L"
      ],
      [
        "Ġ",
        "Hello"
      ],
      [
        "Ń",
        "ÑĤÐ¾"
      ],
      [
        "ĠÐ",
        "ļ"
      ],
      [
        "ĠÐ",
        "¤ÑĥÐ½ÐºÑĨÐ¸Ñı"
      ],
      [
        "Ð¾",
        "ÑĨ"
      ],
      [
        "ÑĤ",
        "Ð¸"
      ],
      [
        "Ð»",
        "Ð°ÑģÑĤÑĮ"
      ],
      [
        "le",
        "igh"
      ],
      [
        "le",
        "ng"
      ],
      [
        "le",
        "cu"
      ],
      [
        "Ð°Ð»",
        "ÐµÐµ"
      ],
      [
        "ĠÐ½",
        "Ð°Ð¹"
      ],
      [
        "Ġp",
        "ick"
      ],
      [
        "Ġw",
        "ave"
      ],
      [
        "Ð¸ÑĤ",
        "Ð¸ÑĢ"
      ],
      [
        "ĠÐ´",
        "Ð°Ð»ÐµÐµ"
      ],
      [
        "ĠÐ¼",
        "Ð°ÑĪÐ¸Ð½"
      ],
      [
        "Ġ1",
        "3"
      ],
      [
        "Ġ2",
        "5"
      ],
      [
        "th",
        "s"
      ],
      [
        "ĠÐĹ",
        "Ð´ÑĢÐ°Ð²ÑģÑĤÐ²ÑĥÐ¹ÑĤÐµ"
      ],
      [
        "yth",
        "ing"
      ],
      [
        "Ġst",
        "ore"
      ],
      [
        "Ġof",
        "f"
      ],
      [
        "ĠÐ§",
        "ÑĤÐ¾Ð±Ñĭ"
      ],
      [
        "ÑħÐ¾Ð´",
        "Ð¾Ð²"
      ],
      [
        "Ġmo",
        "lecu"
      ],
      [
        "Ġcon",
        "te"
      ],
      [
        "ĠÐ¾Ð±",
        "Ð»Ð°ÑģÑĤÑĮ"
      ],
      [
        "ist",
        "an"
      ],
      [
        "ĠÐ´ÐµÐ»",
        "Ð¸ÑĤÑģÑı"
      ],
      [
        "ÑĥÑİÑī",
        "Ð¸Ñħ"
      ],
      [
        "ĠÐ±Ð¾Ð»ÑĮÑĪ",
        "Ð¸Ñħ"
      ],
      [
        "ĠÐ¾Ð±ÑĥÑĩ",
        "ÐµÐ½Ð½ÑĭÐµ"
      ],
      [
        "ay",
        "leigh"
      ],
      [
        "Ġscatter",
        "ing"
      ],
      [
        "ĠR",
        "ayleigh"
      ],
      [
        "ĠÑĤÐµÐºÑģÑĤÐ°",
        "Ñħ"
      ],
      [
        "ĠÑĥÐ¼Ð½Ð¾Ð¶",
        "ÑĮÑĤÐµ"
      ],
      [
        "ĠÐ½ÐµÐ¹",
        "ÑĢÐ¾ÑģÐµÑĤÐ¸"
      ],
      [
        "ĠÐ¿Ð¾Ð´",
        "ÑħÐ¾Ð´Ð¾Ð²"
      ],
      [
        "Ġsl",
        "ow"
      ],
      [
        "ÐĹ",
        "Ð´ÑĢÐ°Ð²ÑģÑĤÐ²ÑĥÐ¹ÑĤÐµ"
      ],
      [
        "ÑĤÑĢÐ°Ð½ÑģÑĦÐ¾ÑĢÐ¼ÐµÑĢ",
        "Ñĭ"
      ],
      [
        "ĠÐ¸Ð¼",
        "Ð¸ÑĤÐ¸ÑĢ"
      ],
      [
        "Ġwal",
        "k"
      ],
      [
        "Ġwrit",
        "ing"
      ],
      [
        "Ð¾ÑģÑĤ",
        "Ð¾Ðµ"
      ],
      [
        "Ð¾ÑĨ",
        "ÐµÐ½ÑĤ"
      ],
      [
        "leng",
        "ths"
      ],
      [
        "ĠÐ½Ð°Ð¹",
        "ÑĤÐ¸"
      ],
      [
        "Ġwave",
        "lengths"
      ],
      [
        "ĠÐ¼Ð°ÑĪÐ¸Ð½",
        "Ð°Ñħ"
      ],
      [
        "Ġmolecu",
        "les"
      ],
      [
        "Ġconte",
        "xt"
      ],
      [
        "ĠÐ¸Ð¼Ð¸ÑĤÐ¸ÑĢ",
        "ÑĥÑİÑīÐ¸Ñħ"
      ],
      [
        "Ġ",
        "H"
      ],
      [
        "Ġ",
        "For"
      ],
      [
        "ĠÐĴ",
        "ÑĭÑĩÐ¸ÑĤÐ°ÐµÐ¼"
      ],
      [
        "ÐĴ",
        "ÑĭÑĩÐ¸ÑĤÐ°ÐµÐ¼"
      ],
      [
        "I",
        "t"
      ],
      [
        "g",
        "s"
      ],
      [
        "Ð",
        "Ŀ"
      ],
      [
        "Ñģ",
        "Ð½Ð¾Ðµ"
      ],
      [
        "ÑĢ",
        "Ð¾Ð²"
      ],
      [
        "Ð½",
        "ÐµÑĢ"
      ],
      [
        "Ð½",
        "Ð½Ð¾"
      ],
      [
        "Ñĭ",
        "Ð»"
      ],
      [
        "Ñĭ",
        "Ñĩ"
      ],
      [
        "ĠÐ¿",
        "Ð¾Ð¿ÑĢÐ¾Ð±ÑĥÐ¹ÑĤÐµ"
      ],
      [
        "ĠÐ¿",
        "ÑĭÐ»"
      ],
      [
        "Ñı",
        "Ñı"
      ],
      [
        "Ð»",
        "Ð¾Ð¼"
      ],
      [
        "Ð»",
        "Ð¸Ð²"
      ],
      [
        "Ð»",
        "Ð¾ÑĢÐ¾"
      ],
      [
        "Ð»",
        "Ð°ÑģÑģ"
      ],
      [
        "ĠÑģ",
        "Ð°Ð¼"
      ],
      [
        "ĠÑģ",
        "Ð°Ñħ"
      ],
      [
        "ĠÑģ",
        "Ð¸Ð½Ð¸"
      ],
      [
        "ĠÐ²",
        "Ð·"
      ],
      [
        "Ð²",
        "Ð°"
      ],
      [
        "Ð²",
        "Ð¸ÑĤ"
      ],
      [
        "ĠÐ¿ÑĢ",
        "Ð¸Ð²"
      ],
      [
        "Ġs",
        "um"
      ],
      [
        "Ð±",
        "Ð¸ÑĤÐµ"
      ],
      [
        "ĠÐº",
        "ÑĢÐ°"
      ],
      [
        "ĠÐº",
        "Ð»Ð°ÑģÑģ"
      ],
      [
        "ĠÑĤ",
        "Ñĳ"
      ],
      [
        "re",
        "d"
      ],
      [
        "re",
        "e"
      ],
      [
        "Ð´",
        "ÐµÐ»"
      ],
      [
        "ÐµÐ»",
        "Ð°Ð¼Ð¸"
      ],
      [
        "ÐµÑĢ",
        "Ñĭ"
      ],
      [
        "ÐµÑĢ",
        "Ð¸Ñİ"
      ],
      [
        "Ð¾Ð¼",
        "Ñĥ"
      ],
      [
        "ĠÐ¼",
        "Ð°ÑĤ"
      ],
      [
        "Ð°ÑĤ",
        "Ðµ"
      ],
      [
        "ĠÑĥ",
        "Ð»Ð°Ð²"
      ],
      [
        "Ð³",
        "Ð¸Ñİ"
      ],
      [
        "ĠÐ½Ð°",
        "ÑĥÐº"
      ],
      [
        "ĠÐ±",
        "Ð»Ð¸"
      ],
      [
        "ic",
        "s"
      ],
      [
        "Ġe",
        "x"
      ],
      [
        "Ð¾ÑĢ",
        "Ð°Ð·"
      ],
      [
        "Ð°ÑĢÐ°",
        "Ñħ"
      ],
      [
        "Ð¸Ðº",
        "Ð¸"
      ],
      [
        "ĠÐ°",
        "ÑĤÐ¼Ð¾ÑģÑĦ"
      ],
      [
        "Ð¸Ð»",
        "Ð»Ð¾Ð¼"
      ],
      [
        "ÑĢÑĭ",
        "Ð²Ð°"
      ],
      [
        "Ð¶",
        "Ðµ"
      ],
      [
        "ĠÐ³",
        "Ð°Ð·"
      ],
      [
        "ĠÑį",
        "Ð½ÐµÑĢ"
      ],
      [
        "ĠÐ¿Ð¾",
        "ÑģÑĤÐ¾Ñı"
      ],
      [
        "ĠÐ¿Ð¾",
        "Ñį"
      ],
      [
        "ĠÐ²Ñĭ",
        "Ð´ÐµÐ»"
      ],
      [
        "ĠÑĦ",
        "Ð°Ð½ÑĤ"
      ],
      [
        "ĠÑĢÐ°Ñģ",
        "ÑģÐºÐ°Ð·"
      ],
      [
        "ÑĦ",
        "Ð¸Ð»Ð»Ð¾Ð¼"
      ],
      [
        "ÑĭÐ²",
        "Ð°ÑİÑĤ"
      ],
      [
        "ÑĥÑģ",
        "ÑĮ"
      ],
      [
        "ĠÐ¿ÑĢÐµÐ´",
        "ÐµÐ»Ð°Ð¼Ð¸"
      ],
      [
        "Ð°ÑģÑĤ",
        "ÐµÐ½Ð¸Ñı"
      ],
      [
        "Ð°ÑģÑĤ",
        "Ð¸ÐºÑĥ"
      ],
      [
        "ÑĤÐ¾Ð¼",
        "Ñĥ"
      ],
      [
        "ĠÑıÐ·ÑĭÐº",
        "Ð¸"
      ],
      [
        "ĠÐ½Ð¾Ð²",
        "Ð¾Ð¼Ñĥ"
      ],
      [
        "ĠÐŀ",
        "Ð½"
      ],
      [
        "Ġsquare",
        "s"
      ],
      [
        "Ġhold",
        "s"
      ],
      [
        "Ð¼Ð½",
        "ÑĥÑİ"
      ],
      [
        "ĠÑģÐ²ÐµÑĤ",
        "Ð°"
      ],
      [
        "Ġbre",
        "aking"
      ],
      [
        "ĠÐļÐ°Ðº",
        "Ð¾Ð¹"
      ],
      [
        "Ġstep",
        "s"
      ],
      [
        "ĠÑħ",
        "Ð»Ð¾ÑĢÐ¾"
      ],
      [
        "Ð¾ÑģÐ¼Ð¾Ñģ",
        "Ð¾Ð¼"
      ],
      [
        "ĠÐºÐ½Ð¸Ð³",
        "Ð¸"
      ],
      [
        "ĠÐ¶Ð°Ð½",
        "ÑĢÐ°"
      ],
      [
        "Ġth",
        "ree"
      ],
      [
        "ĠÐ²ÑĢÐµÐ¼",
        "ÐµÐ½Ð¸"
      ],
      [
        "Ġwh",
        "y"
      ],
      [
        "ĠÐ¼ÑĭÑĪÐ»",
        "ÐµÐ½Ð¸Ð¸"
      ],
      [
        "ÑĤÐ¼Ð¾ÑģÑĦ",
        "ÐµÑĢÐ°"
      ],
      [
        "Ġle",
        "gs"
      ],
      [
        "ĠÐ½Ð°Ð·",
        "ÑĭÐ²Ð°ÑİÑĤ"
      ],
      [
        "ĠÐ·Ð°Ðº",
        "Ð°ÑĤÐµ"
      ],
      [
        "Ġequal",
        "s"
      ],
      [
        "ĠÑĥÑĩ",
        "ÑĥÑģÑĮ"
      ],
      [
        "ĠÐ»Ñİ",
        "Ð±Ð¸ÑĤÐµ"
      ],
      [
        "ĠÐĳÐ¾Ð»ÑĮÑĪ",
        "Ð¾Ð³Ð¾"
      ],
      [
        "ĠÐ·Ð°Ð¿Ð°Ñģ",
        "Ð°ÑİÑĤ"
      ],
      [
        "ĠÑĢÐ°ÑģÑĪÐ¸ÑĢÑıÐµÑĤ",
        "ÑģÑı"
      ],
      [
        "ÑĭÑĩ",
        "ÐºÐ°Ñħ"
      ],
      [
        "ĠÐ¿ÑĭÐ»",
        "ÑĮ"
      ],
      [
        "Ð»Ð¸Ð²",
        "Ð°ÑİÑĤ"
      ],
      [
        "ĠÑģÐ°Ð¼",
        "Ð¾ÑĢÐ°Ð·"
      ],
      [
        "ĠÑģÐ°Ñħ",
        "Ð°ÑĢÐ°Ñħ"
      ],
      [
        "ĠÑģÐ¸Ð½Ð¸",
        "Ð¹"
      ],
      [
        "ĠÐ²Ð·",
        "ÑĢÑĭÐ²Ð°"
      ],
      [
        "Ð²Ð¸ÑĤ",
        "Ð¸Ñı"
      ],
      [
        "ĠÐ¿ÑĢÐ¸Ð²",
        "ÑĭÑĩÐºÐ°Ñħ"
      ],
      [
        "ĠÐºÑĢÐ°",
        "ÑģÐ½Ð¾Ðµ"
      ],
      [
        "ĠÐºÐ»Ð°ÑģÑģ",
        "Ð¸ÐºÐ¸"
      ],
      [
        "ĠÑĤÑĳ",
        "Ð¼Ð½ÑĥÑİ"
      ],
      [
        "ĠÐ¼Ð°ÑĤ",
        "ÐµÑĢÐ¸Ñİ"
      ],
      [
        "ĠÑĥÐ»Ð°Ð²",
        "Ð»Ð¸Ð²Ð°ÑİÑĤ"
      ],
      [
        "ĠÐ½Ð°ÑĥÐº",
        "Ñĥ"
      ],
      [
        "ĠÐ±Ð»Ð¸",
        "Ð¶Ðµ"
      ],
      [
        "ĠÐ°ÑĤÐ¼Ð¾ÑģÑĦ",
        "ÐµÑĢÑĭ"
      ],
      [
        "ĠÑįÐ½ÐµÑĢ",
        "Ð³Ð¸Ñİ"
      ],
      [
        "ĠÐ¿Ð¾ÑģÑĤÐ¾Ñı",
        "Ð½Ð½Ð¾"
      ],
      [
        "ĠÐ¿Ð¾Ñį",
        "ÑĤÐ¾Ð¼Ñĥ"
      ],
      [
        "ĠÐ²ÑĭÐ´ÐµÐ»",
        "ÑıÑı"
      ],
      [
        "ĠÑĦÐ°Ð½ÑĤ",
        "Ð°ÑģÑĤÐ¸ÐºÑĥ"
      ],
      [
        "ĠÑĢÐ°ÑģÑģÐºÐ°Ð·",
        "Ð°ÑĤÑĮ"
      ],
      [
        "ĠÑħÐ»Ð¾ÑĢÐ¾",
        "ÑĦÐ¸Ð»Ð»Ð¾Ð¼"
      ],
      [
        "ĠÑģÐ°Ð¼Ð¾ÑĢÐ°Ð·",
        "Ð²Ð¸ÑĤÐ¸Ñı"
      ],
      [
        "Ð",
        "Ĳ"
      ],
      [
        "Ġ",
        "ÑĤÐ¾"
      ],
      [
        "Ī",
        "Ĵ"
      ],
      [
        "Ð¾",
        "Ñħ"
      ],
      [
        "Ðµ",
        "Ñħ"
      ],
      [
        "Ðµ",
        "Ð¾Ð±"
      ],
      [
        "Ðµ",
        "ÑģÑĤÐ²Ð°"
      ],
      [
        "ÑĤ",
        "Ð¾Ð½"
      ],
      [
        "ÑĤ",
        "ÑĢÐ¾Ð½"
      ],
      [
        "ÑĢ",
        "Ð¾"
      ],
      [
        "ÑĢ",
        "Ð°Ð¶"
      ],
      [
        "ÑĢ",
        "Ð½ÑĭÑħ"
      ],
      [
        "Ð½",
        "Ð¾Ð»"
      ],
      [
        "Ð½",
        "Ð¾Ð³Ð¾"
      ],
      [
        "Ð»",
        "Ð°"
      ],
      [
        "Ð»",
        "Ð³"
      ],
      [
        "Ð»",
        "Ð°Ð½"
      ],
      [
        "Ð»",
        "ÐºÐ°"
      ],
      [
        "Ðº",
        "ÑĤÑĥÑĢÑĭ"
      ],
      [
        "Ñĩ",
        "Ð°Ð¹"
      ],
      [
        "Ġt",
        "as"
      ],
      [
        "Ġt",
        "enses"
      ],
      [
        "ĠÑģ",
        "Ð¾Ð½"
      ],
      [
        "ĠÐ²",
        "Ð°Ð¼"
      ],
      [
        "ĠÐ²",
        "ÐµÑī"
      ],
      [
        "Ð¼",
        "Ð¾Ð²"
      ],
      [
        "ÐµÑĤ",
        "ÐµÐ½"
      ],
      [
        "ÐµÑĤ",
        "Ð¾Ð¼"
      ],
      [
        "Ð½Ð¸",
        "Ð»Ð°"
      ],
      [
        "ĠÐ¿ÑĢ",
        "Ð¸Ð¼"
      ],
      [
        "ĠÐ¿ÑĢ",
        "Ð¾Ð³Ñĥ"
      ],
      [
        "ĠÐ¿ÑĢ",
        "Ð¸Ð¼ÐµÑĢ"
      ],
      [
        "ĠÑĤ",
        "ÑĢÐ¸"
      ],
      [
        "ĠÑĤ",
        "ÐµÑħ"
      ],
      [
        "ĠÑĩ",
        "Ð°ÑģÑĤ"
      ],
      [
        "ĠÐ½",
        "Ð¾"
      ],
      [
        "Ġâ",
        "ĪĴ"
      ],
      [
        "ÐµÐ½",
        "Ð°"
      ],
      [
        "Ð´",
        "ÑĢÐ¾"
      ],
      [
        "Ð¸ÑĤ",
        "Ð¼Ð¾Ð²"
      ],
      [
        "Ð¾Ð³",
        "Ð¸Ð¹"
      ],
      [
        "Ñİ",
        "Ñģ"
      ],
      [
        "Ð¾Ð¼",
        "Ð½Ð¸Ð»Ð°"
      ],
      [
        "ĠÐ´",
        "Ð°ÑĤ"
      ],
      [
        "Ð°Ñģ",
        "ÐµÑĤÐ¾Ð¼"
      ],
      [
        "Ð½Ñĭ",
        "Ð¼"
      ],
      [
        "Ð°Ð¼",
        "ÐµÑĤÐµÐ½"
      ],
      [
        "ĠÐ¼",
        "Ð¸ÑĢ"
      ],
      [
        "ĠÐ¼",
        "ÐµÐ»ÑĮ"
      ],
      [
        "ĠÐ·",
        "Ð°Ð½"
      ],
      [
        "ĠÐ·",
        "Ð°Ð¼ÐµÑĤÐµÐ½"
      ],
      [
        "Ð°ÑĤ",
        "Ð°"
      ],
      [
        "Ð°ÑĤ",
        "ÐµÐ»ÑĮ"
      ],
      [
        "ar",
        "s"
      ],
      [
        "Ð½Ðµ",
        "Ð½Ð¸Ñı"
      ],
      [
        "ÑĪ",
        "Ð°Ñı"
      ],
      [
        "ĠÐ¿ÑĢÐ¾",
        "Ð¸Ñģ"
      ],
      [
        "ĠÐ¿ÑĢÐ¾",
        "ÑĤÐ¾Ð½"
      ],
      [
        "Ð¾ÑĢ",
        "Ð¸ÑĤÐ¼Ð¾Ð²"
      ],
      [
        "Ñī",
        "Ð¸Ðµ"
      ],
      [
        "Ð°Ð·",
        "Ð°"
      ],
      [
        "Ð°Ð·",
        "Ð½ÑĭÐ¹"
      ],
      [
        "ÑģÑı",
        "ÑĨ"
      ],
      [
        "ÑĥÑĩ",
        "ÐµÐ½Ð¸Ðµ"
      ],
      [
        "ÑĥÑĩ",
        "Ð½ÑĭÑħ"
      ],
      [
        "ĠÑĢ",
        "Ð°Ð²"
      ],
      [
        "ĠÑĢ",
        "ÑĥÑĩÐ½ÑĭÑħ"
      ],
      [
        "ĠÐ°",
        "Ð»Ð³"
      ],
      [
        "Ð°Ñİ",
        "ÑīÐ¸Ðµ"
      ],
      [
        "ÑĨÐ¸",
        "ÐµÐ¹"
      ],
      [
        "Ð½Ð¾",
        "Ð¾Ð±"
      ],
      [
        "ĠÐ§",
        "ÐµÑĢÐµÐ·"
      ],
      [
        "ĠÑį",
        "Ð»ÐµÐºÑĤ"
      ],
      [
        "ĠÑı",
        "Ð´ÑĢÐ¾"
      ],
      [
        "ÐµÐ¹",
        "ÑĢÐ¾ÑģÐµÑĤÐ¸"
      ],
      [
        "Ð¸Ðµ",
        "Ð½Ð¸Ðµ"
      ],
      [
        "Ġco",
        "mm"
      ],
      [
        "ve",
        "l"
      ],
      [
        "ĠÑģÐ²",
        "Ð¾Ð¹"
      ],
      [
        "ÐµÑĩ",
        "Ð¸ÑĤÑģÑı"
      ],
      [
        "Ġcon",
        "sist"
      ],
      [
        "ÑĢÑĥ",
        "ÐºÑĤÑĥÑĢÑĭ"
      ],
      [
        "ĠÐ·Ð°",
        "Ð½Ð¸Ð¼"
      ],
      [
        "ĠÐ´ÐµÐ»",
        "Ð¸Ð¼"
      ],
      [
        "ĠÐºÐ¸Ð»Ð¾Ð³ÑĢÐ°Ð¼Ð¼",
        "Ñĥ"
      ],
      [
        "ĠÐ±Ð¾Ð»ÑĮÑĪ",
        "Ð¸Ð¼"
      ],
      [
        "ĠÐ±Ð¾Ð»ÑĮÑĪ",
        "Ð¾Ð¹"
      ],
      [
        "ĠÐĴ",
        "Ð°ÑĤÐ°"
      ],
      [
        "ĠÐ¾Ð±ÑĥÑĩ",
        "Ð°ÑİÑīÐ¸Ðµ"
      ],
      [
        "ent",
        "ly"
      ],
      [
        "ĠÐ½Ð¾Ð²",
        "ÑĭÑħ"
      ],
      [
        "ĠÐŀ",
        "ÑģÑĤÐ°Ð»Ð¾ÑģÑĮ"
      ],
      [
        "ĠÐ¿Ð»",
        "Ð¾Ñħ"
      ],
      [
        "ĠÐ¿Ð»",
        "ÑİÑģ"
      ],
      [
        "ĠÐ¿ÐµÑĢ",
        "ÐµÐ¾Ð±"
      ],
      [
        "ĠÐł",
        "Ð°Ð·Ð½ÑĭÐ¹"
      ],
      [
        "ÐµÑĢÐ°",
        "Ñħ"
      ],
      [
        "ÑıÑĤ",
        "Ð¸Ð¹"
      ],
      [
        "ĠÐ·Ð°Ð´Ð°Ñĩ",
        "Ð°Ð¼Ð¸"
      ],
      [
        "ĠÐ¼Ð°Ð»ÐµÐ½ÑĮÐº",
        "Ð°Ñı"
      ],
      [
        "ĠÐ²ÐµÑģ",
        "Ð¸ÑĤ"
      ],
      [
        "ĠÐ·Ð°Ð¿",
        "Ð¾Ð¼Ð½Ð¸Ð»Ð°"
      ],
      [
        "ĠÐĿ",
        "ÐµÐ¹ÑĢÐ¾ÑģÐµÑĤÐ¸"
      ],
      [
        "ĠÑıÐ±Ð»Ð¾Ðº",
        "Ð°"
      ],
      [
        "ĠÐ½ÐµÐ¹",
        "ÑĤÑĢÐ¾Ð½"
      ],
      [
        "ĠÐµÐ´",
        "Ð¸Ð½Ð¸"
      ],
      [
        "ÑĢÐ¸",
        "Ð·Ð°"
      ],
      [
        "ĠÐ²Ñģ",
        "ÐµÐ³Ð¾"
      ],
      [
        "ĠÐ²ÑĢÐµÐ¼",
        "ÐµÐ½Ð°"
      ],
      [
        "ĠÐ´ÑĢÑĥÐ³",
        "Ð¾Ðµ"
      ],
      [
        "ÑĢÐ¾Ð½",
        "Ñĭ"
      ],
      [
        "ĠÐ²Ð¸Ð´",
        "Ð¾Ð²"
      ],
      [
        "ĠÐ¼Ðµ",
        "ÑģÑĤÐ°"
      ],
      [
        "ĠÐ¼Ðµ",
        "ÑģÑıÑĨ"
      ],
      [
        "ĠÑĢÐ°Ð·",
        "Ð½Ð¾Ð¾Ð±"
      ],
      [
        "Ð°ÐºÐ¾Ð²",
        "Ð¾"
      ],
      [
        "ĠÑĥÐ¿",
        "ÑĢÐ°Ð¶"
      ],
      [
        "ĠÐ¾Ð±ÑĬ",
        "ÑĳÐ¼"
      ],
      [
        "Ð°ÑĪÐ¸Ð½",
        "Ð½Ð¾Ðµ"
      ],
      [
        "Ð»Ð°Ð²",
        "Ð½Ð¾Ðµ"
      ]
    ]
  }
}